{
  "version": "1.0",
  "truncation": null,
  "padding": null,
  "added_tokens": [
    {
      "id": 0,
      "content": "[UNK]",
      "single_word": false,
      "lstrip": false,
      "rstrip": false,
      "normalized": false,
      "special": true
    },
    {
      "id": 1,
      "content": "[CLS]",
      "single_word": false,
      "lstrip": false,
      "rstrip": false,
      "normalized": false,
      "special": true
    },
    {
      "id": 2,
      "content": "[SEP]",
      "single_word": false,
      "lstrip": false,
      "rstrip": false,
      "normalized": false,
      "special": true
    },
    {
      "id": 3,
      "content": "[PAD]",
      "single_word": false,
      "lstrip": false,
      "rstrip": false,
      "normalized": false,
      "special": true
    }
  ],
  "normalizer": {
    "type": "Sequence",
    "normalizers": [
      {
        "type": "NFD"
      },
      {
        "type": "Lowercase"
      },
      {
        "type": "StripAccents"
      }
    ]
  },
  "pre_tokenizer": {
    "type": "Whitespace"
  },
  "post_processor": {
    "type": "TemplateProcessing",
    "single": [
      {
        "SpecialToken": {
          "id": "[CLS]",
          "type_id": 0
        }
      },
      {
        "Sequence": {
          "id": "A",
          "type_id": 0
        }
      },
      {
        "SpecialToken": {
          "id": "[SEP]",
          "type_id": 0
        }
      }
    ],
    "pair": [
      {
        "SpecialToken": {
          "id": "[CLS]",
          "type_id": 0
        }
      },
      {
        "Sequence": {
          "id": "A",
          "type_id": 0
        }
      },
      {
        "SpecialToken": {
          "id": "[SEP]",
          "type_id": 0
        }
      },
      {
        "Sequence": {
          "id": "B",
          "type_id": 1
        }
      },
      {
        "SpecialToken": {
          "id": "[SEP]",
          "type_id": 1
        }
      }
    ],
    "special_tokens": {
      "[CLS]": {
        "id": "[CLS]",
        "ids": [
          1
        ],
        "tokens": [
          "[CLS]"
        ]
      },
      "[SEP]": {
        "id": "[SEP]",
        "ids": [
          2
        ],
        "tokens": [
          "[SEP]"
        ]
      }
    }
  },
  "decoder": {
    "type": "WordPiece",
    "prefix": "##",
    "cleanup": true
  },
  "model": {
    "type": "WordPiece",
    "unk_token": "[UNK]",
    "continuing_subword_prefix": "##",
    "max_input_chars_per_word": 100,
    "vocab": {
      "[UNK]": 0,
      "[CLS]": 1,
      "[SEP]": 2,
      "[PAD]": 3,
      "!": 4,
      "\"": 5,
      "#": 6,
      "$": 7,
      "%": 8,
      "&": 9,
      "'": 10,
      "+": 11,
      ",": 12,
      "-": 13,
      ".": 14,
      "/": 15,
      "0": 16,
      "1": 17,
      "2": 18,
      "3": 19,
      "4": 20,
      "5": 21,
      "6": 22,
      "7": 23,
      "8": 24,
      "9": 25,
      ":": 26,
      ";": 27,
      "=": 28,
      "?": 29,
      "[": 30,
      "]": 31,
      "`": 32,
      "a": 33,
      "b": 34,
      "c": 35,
      "d": 36,
      "e": 37,
      "f": 38,
      "g": 39,
      "h": 40,
      "i": 41,
      "j": 42,
      "k": 43,
      "l": 44,
      "m": 45,
      "n": 46,
      "o": 47,
      "p": 48,
      "q": 49,
      "r": 50,
      "s": 51,
      "t": 52,
      "u": 53,
      "v": 54,
      "w": 55,
      "x": 56,
      "y": 57,
      "z": 58,
      "~": 59,
      "ª": 60,
      "°": 61,
      "²": 62,
      "´": 63,
      "º": 64,
      "τ": 65,
      "–": 66,
      "—": 67,
      "‘": 68,
      "’": 69,
      "“": 70,
      "”": 71,
      "™": 72,
      "∇": 73,
      "♫": 74,
      "##i": 75,
      "##n": 76,
      "##g": 77,
      "##u": 78,
      "##a": 79,
      "##d": 80,
      "##o": 81,
      "##s": 82,
      "##m": 83,
      "##t": 84,
      "##f": 85,
      "##c": 86,
      "##r": 87,
      "##h": 88,
      "##e": 89,
      "##p": 90,
      "##b": 91,
      "##v": 92,
      "##l": 93,
      "##q": 94,
      "##k": 95,
      "##z": 96,
      "##y": 97,
      "##x": 98,
      "##\"": 99,
      "##j": 100,
      "##w": 101,
      "##9": 102,
      "##4": 103,
      "##7": 104,
      "##3": 105,
      "##2": 106,
      "##1": 107,
      "##º": 108,
      "##5": 109,
      "##0": 110,
      "##8": 111,
      "##6": 112,
      "##”": 113,
      "##]": 114,
      "##.": 115,
      "##,": 116,
      "##♫": 117,
      "##-": 118,
      "##™": 119,
      "##:": 120,
      "##ª": 121,
      "##`": 122,
      "##'": 123,
      "##τ": 124,
      "##?": 125,
      "##!": 126,
      "##os": 127,
      "##ra": 128,
      "##es": 129,
      "##nt": 130,
      "##as": 131,
      "##er": 132,
      "qu": 133,
      "de": 134,
      "co": 135,
      "##ar": 136,
      "##em": 137,
      "##is": 138,
      "##ao": 139,
      "que": 140,
      "##do": 141,
      "##or": 142,
      "##ia": 143,
      "es": 144,
      "##ent": 145,
      "##ta": 146,
      "um": 147,
      "##en": 148,
      "##da": 149,
      "com": 150,
      "##in": 151,
      "##ic": 152,
      "##am": 153,
      "##al": 154,
      "##an": 155,
      "##ro": 156,
      "se": 157,
      "##ara": 158,
      "##de": 159,
      "##re": 160,
      "##to": 161,
      "##so": 162,
      "##im": 163,
      "##el": 164,
      "em": 165,
      "##qu": 166,
      "##ec": 167,
      "para": 168,
      "##oc": 169,
      "##ente": 170,
      "uma": 171,
      "nao": 172,
      "el": 173,
      "##ei": 174,
      "eu": 175,
      "nos": 176,
      "##co": 177,
      "mu": 178,
      "po": 179,
      "ma": 180,
      "##iv": 181,
      "as": 182,
      "##te": 183,
      "do": 184,
      "##gu": 185,
      "##ida": 186,
      "por": 187,
      "##il": 188,
      "##io": 189,
      "no": 190,
      "esta": 191,
      "me": 192,
      "voc": 193,
      "da": 194,
      "con": 195,
      "so": 196,
      "na": 197,
      "al": 198,
      "##ha": 199,
      "##ando": 200,
      "##sa": 201,
      "pro": 202,
      "##ac": 203,
      "como": 204,
      "##se": 205,
      "##dos": 206,
      "is": 207,
      "di": 208,
      "ent": 209,
      "##ma": 210,
      "ou": 211,
      "os": 212,
      "re": 213,
      "in": 214,
      "su": 215,
      "##mente": 216,
      "mas": 217,
      "##go": 218,
      "##ca": 219,
      "tem": 220,
      "des": 221,
      "##po": 222,
      "fa": 223,
      "##it": 224,
      "##va": 225,
      "##mos": 226,
      "to": 227,
      "##ica": 228,
      "mais": 229,
      "##ho": 230,
      "##res": 231,
      "ex": 232,
      "isso": 233,
      "##ir": 234,
      "est": 235,
      "##enc": 236,
      "voce": 237,
      "##ul": 238,
      "##ol": 239,
      "##esso": 240,
      "##amos": 241,
      "an": 242,
      "##ist": 243,
      "##un": 244,
      "fo": 245,
      "##us": 246,
      "##ito": 247,
      "##ran": 248,
      "##idade": 249,
      "##ig": 250,
      "en": 251,
      "ap": 252,
      "##inha": 253,
      "faz": 254,
      "ca": 255,
      "##emos": 256,
      "pesso": 257,
      "ser": 258,
      "pod": 259,
      "per": 260,
      "##ram": 261,
      "##das": 262,
      "##ento": 263,
      "##tra": 264,
      "ele": 265,
      "##nte": 266,
      "##ado": 267,
      "entao": 268,
      "##um": 269,
      "##bre": 270,
      "sa": 271,
      "##ens": 272,
      "##encia": 273,
      "##iz": 274,
      "##tu": 275,
      "##ndo": 276,
      "##ou": 277,
      "ha": 278,
      "eles": 279,
      "##ez": 280,
      "##pl": 281,
      "ch": 282,
      "pessoas": 283,
      "mo": 284,
      "quando": 285,
      "##acao": 286,
      "muito": 287,
      "sobre": 288,
      "##que": 289,
      "ac": 290,
      "ter": 291,
      "tra": 292,
      "par": 293,
      "ver": 294,
      "##et": 295,
      "dis": 296,
      "aqu": 297,
      "sao": 298,
      "cr": 299,
      "##cao": 300,
      "pre": 301,
      "algu": 302,
      "##mo": 303,
      "esp": 304,
      "voces": 305,
      "##ion": 306,
      "cois": 307,
      "##ias": 308,
      "##ais": 309,
      "##ico": 310,
      "mes": 311,
      "anos": 312,
      "##ido": 313,
      "##ver": 314,
      "##lh": 315,
      "##nto": 316,
      "minha": 317,
      "##og": 318,
      "##on": 319,
      "##endo": 320,
      "##id": 321,
      "quer": 322,
      "##if": 323,
      "##tr": 324,
      "ass": 325,
      "era": 326,
      "dos": 327,
      "##era": 328,
      "cont": 329,
      "foi": 330,
      "real": 331,
      "ao": 332,
      "am": 333,
      "for": 334,
      "##eg": 335,
      "int": 336,
      "##dade": 337,
      "porque": 338,
      "pr": 339,
      "##cont": 340,
      "pel": 341,
      "##ix": 342,
      "##ita": 343,
      "##ras": 344,
      "ob": 345,
      "ela": 346,
      "##ios": 347,
      "##om": 348,
      "sem": 349,
      "sua": 350,
      "comp": 351,
      "ar": 352,
      "##sas": 353,
      "res": 354,
      "##des": 355,
      "sab": 356,
      "##rar": 357,
      "##tar": 358,
      "##end": 359,
      "cons": 360,
      "im": 361,
      "fazer": 362,
      "##ece": 363,
      "dif": 364,
      "bem": 365,
      "##ve": 366,
      "##cis": 367,
      "vez": 368,
      "mundo": 369,
      "meu": 370,
      "##ce": 371,
      "cer": 372,
      "##ada": 373,
      "fal": 374,
      "pos": 375,
      "##pos": 376,
      "##tiv": 377,
      "##tos": 378,
      "##oria": 379,
      "##bal": 380,
      "##la": 381,
      "todos": 382,
      "##entes": 383,
      "diz": 384,
      "##enas": 385,
      "pode": 386,
      "das": 387,
      "la": 388,
      "##eira": 389,
      "comec": 390,
      "pens": 391,
      "pe": 392,
      "cria": 393,
      "precis": 394,
      "##eria": 395,
      "este": 396,
      "essa": 397,
      "seu": 398,
      "##gora": 399,
      "##orn": 400,
      "agora": 401,
      "ti": 402,
      "##ntes": 403,
      "trabal": 404,
      "##inh": 405,
      "aqui": 406,
      "lu": 407,
      "##ur": 408,
      "##ina": 409,
      "assim": 410,
      "pa": 411,
      "on": 412,
      "##amente": 413,
      "##tro": 414,
      "##amb": 415,
      "prim": 416,
      "vida": 417,
      "col": 418,
      "##coes": 419,
      "un": 420,
      "estava": 421,
      "coisas": 422,
      "##por": 423,
      "##iencia": 424,
      "esco": 425,
      "esse": 426,
      "tempo": 427,
      "qual": 428,
      "le": 429,
      "pas": 430,
      "##ib": 431,
      "mesmo": 432,
      "##iam": 433,
      "--": 434,
      "ho": 435,
      "##for": 436,
      "##per": 437,
      "temos": 438,
      "ab": 439,
      "##anto": 440,
      "esc": 441,
      "algo": 442,
      "fil": 443,
      "cam": 444,
      "tamb": 445,
      "tambem": 446,
      "##je": 447,
      "##udo": 448,
      "du": 449,
      "##du": 450,
      "##eiro": 451,
      "acont": 452,
      "vi": 453,
      "##pa": 454,
      "##ores": 455,
      "difer": 456,
      "##ja": 457,
      "verdade": 458,
      "dia": 459,
      "cor": 460,
      "sim": 461,
      "##bl": 462,
      "##ros": 463,
      "nes": 464,
      "##elh": 465,
      "estao": 466,
      "men": 467,
      "ra": 468,
      "fun": 469,
      "##pre": 470,
      "##icos": 471,
      "##imos": 472,
      "inter": 473,
      "cas": 474,
      "##har": 475,
      "realmente": 476,
      "##ru": 477,
      "segu": 478,
      "##eito": 479,
      "##sar": 480,
      "##ema": 481,
      "apenas": 482,
      "disse": 483,
      "elas": 484,
      "##cas": 485,
      "##vol": 486,
      "##tura": 487,
      "##imento": 488,
      "coisa": 489,
      "rec": 490,
      "##mag": 491,
      ".\"": 492,
      "##rig": 493,
      "##ela": 494,
      "hist": 495,
      "muit": 496,
      "isto": 497,
      "##ivel": 498,
      "cham": 499,
      "##cion": 500,
      "##iver": 501,
      "med": 502,
      "##iar": 503,
      "##me": 504,
      "imag": 505,
      "##ns": 506,
      "ate": 507,
      "##ter": 508,
      "##vel": 509,
      "##aram": 510,
      "##ite": 511,
      "##tras": 512,
      "ide": 513,
      "sent": 514,
      "##ele": 515,
      "ja": 516,
      "##gar": 517,
      "torn": 518,
      "##mas": 519,
      "nossa": 520,
      "##ses": 521,
      "onde": 522,
      "##ista": 523,
      "pou": 524,
      "car": 525,
      "mil": 526,
      "##dar": 527,
      "##est": 528,
      "gran": 529,
      "##vam": 530,
      "nov": 531,
      "cl": 532,
      "##inda": 533,
      "pergu": 534,
      "##tas": 535,
      "##tamente": 536,
      "##sos": 537,
      "estamos": 538,
      "##dor": 539,
      "podem": 540,
      "man": 541,
      "essas": 542,
      "seus": 543,
      "##lher": 544,
      "mai": 545,
      "##ial": 546,
      "melh": 547,
      "##00": 548,
      "##ifica": 549,
      "##indo": 550,
      "##ala": 551,
      "##ima": 552,
      "##ive": 553,
      "entre": 554,
      "fu": 555,
      "##ip": 556,
      "##segu": 557,
      "pergunt": 558,
      "tudo": 559,
      "##le": 560,
      "ainda": 561,
      "todo": 562,
      "##tou": 563,
      "ir": 564,
      "##pres": 565,
      "tao": 566,
      "##entos": 567,
      "##ira": 568,
      "podemos": 569,
      "poderia": 570,
      "va": 571,
      "pais": 572,
      "vol": 573,
      "nas": 574,
      "##ie": 575,
      "conf": 576,
      "tinha": 577,
      "##anc": 578,
      "##idades": 579,
      "mar": 580,
      "##via": 581,
      "nosso": 582,
      "lo": 583,
      "##icao": 584,
      "forma": 585,
      "depo": 586,
      "ten": 587,
      "quero": 588,
      "depois": 589,
      "fic": 590,
      "hum": 591,
      "pu": 592,
      "##tic": 593,
      "cada": 594,
      "hoje": 595,
      "##hec": 596,
      "consegu": 597,
      "tal": 598,
      "tec": 599,
      "##mento": 600,
      "dizer": 601,
      "##olog": 602,
      "##pr": 603,
      "pen": 604,
      "##ign": 605,
      "mulher": 606,
      "espec": 607,
      "aj": 608,
      "dire": 609,
      "##idos": 610,
      "##gia": 611,
      "##lu": 612,
      "##emb": 613,
      "##quer": 614,
      "##tru": 615,
      "historia": 616,
      "pl": 617,
      "obrig": 618,
      "ju": 619,
      "##eb": 620,
      "impor": 621,
      "human": 622,
      "##ero": 623,
      "encont": 624,
      "pelo": 625,
      "vezes": 626,
      "tecn": 627,
      "##igo": 628,
      "##ga": 629,
      "suas": 630,
      "poss": 631,
      "ba": 632,
      "jo": 633,
      "mim": 634,
      "num": 635,
      "probl": 636,
      "\".": 637,
      "mor": 638,
      "melhor": 639,
      "##gra": 640,
      "##ase": 641,
      "##entar": 642,
      "##tante": 643,
      "proc": 644,
      "##aria": 645,
      "##amento": 646,
      "at": 647,
      "fac": 648,
      "##ed": 649,
      "##enta": 650,
      "##tal": 651,
      "tran": 652,
      "##ess": 653,
      "ins": 654,
      "inc": 655,
      "pela": 656,
      "ad": 657,
      "exper": 658,
      "##plo": 659,
      "alguns": 660,
      "acontece": 661,
      "estou": 662,
      "##istas": 663,
      "vai": 664,
      "jog": 665,
      "ideia": 666,
      "fiz": 667,
      "##uda": 668,
      "qua": 669,
      "##ific": 670,
      "lugar": 671,
      "##no": 672,
      "##dores": 673,
      "##red": 674,
      "comun": 675,
      "pequ": 676,
      "tipo": 677,
      "ve": 678,
      "deix": 679,
      "##iente": 680,
      "del": 681,
      "todas": 682,
      "crian": 683,
      "nun": 684,
      "esses": 685,
      "nunca": 686,
      "##hos": 687,
      "##lt": 688,
      "mos": 689,
      "##lo": 690,
      "##almente": 691,
      "##eio": 692,
      "parte": 693,
      "##ender": 694,
      "sou": 695,
      "##rando": 696,
      "##tros": 697,
      "##gem": 698,
      "dois": 699,
      "au": 700,
      "fin": 701,
      "olh": 702,
      "pres": 703,
      "##tes": 704,
      "##cul": 705,
      "##hoes": 706,
      "fam": 707,
      "vis": 708,
      "##fic": 709,
      "##bo": 710,
      "trabalho": 711,
      "us": 712,
      "sempre": 713,
      "simpl": 714,
      "vou": 715,
      "nu": 716,
      "pra": 717,
      "pes": 718,
      "conhec": 719,
      "propr": 720,
      "ano": 721,
      "20": 722,
      "?\"": 723,
      "gos": 724,
      "go": 725,
      "##tor": 726,
      "##jet": 727,
      "nossos": 728,
      "alguem": 729,
      "grande": 730,
      "trans": 731,
      "hom": 732,
      "lemb": 733,
      "sign": 734,
      "vamos": 735,
      "##inar": 736,
      "af": 737,
      "##ismo": 738,
      "seja": 739,
      "meus": 740,
      "qualquer": 741,
      "famil": 742,
      "antes": 743,
      "conc": 744,
      "desen": 745,
      "compl": 746,
      "desco": 747,
      "simples": 748,
      "##oes": 749,
      "##icas": 750,
      "outra": 751,
      "or": 752,
      "soc": 753,
      "outro": 754,
      "apr": 755,
      "pouco": 756,
      "tecnolog": 757,
      "acred": 758,
      "funcion": 759,
      "pequen": 760,
      "tres": 761,
      "##vez": 762,
      "exem": 763,
      "havia": 764,
      "precisamos": 765,
      "primeira": 766,
      "muitos": 767,
      "cent": 768,
      "talvez": 769,
      "##za": 770,
      "nova": 771,
      "estar": 772,
      "##ves": 773,
      "quem": 774,
      "ref": 775,
      "coloc": 776,
      "significa": 777,
      "##cos": 778,
      "##inu": 779,
      "pessoa": 780,
      "##eta": 781,
      "##iu": 782,
      "##bil": 783,
      "##nta": 784,
      "##gua": 785,
      "falar": 786,
      "##inho": 787,
      "##imo": 788,
      "##ceb": 789,
      "tenho": 790,
      "nor": 791,
      "sist": 792,
      "muda": 793,
      "plan": 794,
      "lh": 795,
      "##ntas": 796,
      "menos": 797,
      "aos": 798,
      "##til": 799,
      "outros": 800,
      "##pon": 801,
      "constru": 802,
      "##ntro": 803,
      "dific": 804,
      "##form": 805,
      "##uta": 806,
      "##sao": 807,
      "gra": 808,
      "ro": 809,
      "##car": 810,
      "##aro": 811,
      "inf": 812,
      "duas": 813,
      "##ntos": 814,
      "dentro": 815,
      "##enh": 816,
      "##ecer": 817,
      "pol": 818,
      "##ular": 819,
      "algumas": 820,
      "diferentes": 821,
      "bom": 822,
      "desa": 823,
      "toda": 824,
      "dar": 825,
      "##idas": 826,
      "##ex": 827,
      "##br": 828,
      "##ing": 829,
      "##eca": 830,
      "##iol": 831,
      "prof": 832,
      "prox": 833,
      "ouv": 834,
      "ind": 835,
      "##ranca": 836,
      "momento": 837,
      "disso": 838,
      "atras": 839,
      "##var": 840,
      "maior": 841,
      "##rado": 842,
      "nada": 843,
      "bo": 844,
      "##ient": 845,
      "nossas": 846,
      "##ivo": 847,
      "foto": 848,
      "fazendo": 849,
      "casa": 850,
      "dig": 851,
      "exemplo": 852,
      "\",": 853,
      "br": 854,
      "##itu": 855,
      "ult": 856,
      "##ba": 857,
      "muitas": 858,
      "criancas": 859,
      "eram": 860,
      "mem": 861,
      "conver": 862,
      "fato": 863,
      "obrigado": 864,
      "cidade": 865,
      "##ino": 866,
      "produ": 867,
      "primeiro": 868,
      "fr": 869,
      "##vo": 870,
      "quanto": 871,
      "cheg": 872,
      "amb": 873,
      "tecnologia": 874,
      "ag": 875,
      "vo": 876,
      "##vem": 877,
      "##orias": 878,
      "cap": 879,
      "pensar": 880,
      "##inhas": 881,
      "aca": 882,
      "bas": 883,
      "##vamos": 884,
      "##inas": 885,
      "##igos": 886,
      "sabem": 887,
      "interes": 888,
      "novo": 889,
      "problema": 890,
      "cara": 891,
      "gera": 892,
      "liv": 893,
      "rel": 894,
      "##ura": 895,
      "acho": 896,
      "futu": 897,
      "fel": 898,
      "loc": 899,
      "lon": 900,
      "meio": 901,
      "pala": 902,
      "##ados": 903,
      "##lar": 904,
      "##sado": 905,
      "contra": 906,
      "cul": 907,
      "##na": 908,
      "exist": 909,
      "cab": 910,
      "perceb": 911,
      "volta": 912,
      "palav": 913,
      "atra": 914,
      "val": 915,
      "quase": 916,
      "estavam": 917,
      "##iais": 918,
      "##iamos": 919,
      "sera": 920,
      "poder": 921,
      "perm": 922,
      "mulheres": 923,
      "experiencia": 924,
      "gover": 925,
      "familia": 926,
      "dever": 927,
      "##acion": 928,
      "escolh": 929,
      "..": 930,
      "var": 931,
      "##tica": 932,
      "##zes": 933,
      "##ana": 934,
      "precisa": 935,
      "sistema": 936,
      "##iqu": 937,
      "##rou": 938,
      "bil": 939,
      "tent": 940,
      "inv": 941,
      "criar": 942,
      "cereb": 943,
      "cres": 944,
      "lim": 945,
      "##iram": 946,
      "##adas": 947,
      "##emas": 948,
      "enqu": 949,
      "consc": 950,
      "importante": 951,
      "mostra": 952,
      "...": 953,
      "agua": 954,
      "ed": 955,
      "##gan": 956,
      "##pe": 957,
      "##par": 958,
      "mesma": 959,
      "futuro": 960,
      "##der": 961,
      "seria": 962,
      "che": 963,
      "confia": 964,
      "equ": 965,
      "los": 966,
      "##nca": 967,
      "##vor": 968,
      "##lha": 969,
      "outras": 970,
      "foram": 971,
      "desenvol": 972,
      "cin": 973,
      "usar": 974,
      "##min": 975,
      "##rante": 976,
      "##ilo": 977,
      "sur": 978,
      "diferente": 979,
      "19": 980,
      "ai": 981,
      "op": 982,
      "pal": 983,
      "ru": 984,
      "ta": 985,
      "tr": 986,
      "naqu": 987,
      "##ital": 988,
      "certo": 989,
      "leva": 990,
      "##volu": 991,
      "##ientes": 992,
      "##usa": 993,
      "er": 994,
      "sal": 995,
      "vao": 996,
      "##fer": 997,
      "##emente": 998,
      "##inc": 999,
      "sei": 1000,
      "##quis": 1001,
      "##eiros": 1002,
      "enquanto": 1003,
      "si": 1004,
      "##ine": 1005,
      "neg": 1006,
      "##ude": 1007,
      "somos": 1008,
      "sub": 1009,
      "apar": 1010,
      "partic": 1011,
      "rap": 1012,
      "##anh": 1013,
      "trata": 1014,
      "aum": 1015,
      "fer": 1016,
      "ne": 1017,
      "##jam": 1018,
      "##itar": 1019,
      "capa": 1020,
      "##izar": 1021,
      "objet": 1022,
      "tiv": 1023,
      "##ior": 1024,
      "##nos": 1025,
      "##ula": 1026,
      "##forma": 1027,
      "escre": 1028,
      "maneira": 1029,
      "publ": 1030,
      "gen": 1031,
      "lib": 1032,
      "sido": 1033,
      "##cia": 1034,
      "##enca": 1035,
      "algum": 1036,
      "##ixo": 1037,
      "sabe": 1038,
      "##tiva": 1039,
      "durante": 1040,
      "##iveis": 1041,
      "numa": 1042,
      "lado": 1043,
      "tinh": 1044,
      "##ide": 1045,
      "##eles": 1046,
      "##con": 1047,
      "pois": 1048,
      "dessa": 1049,
      "ener": 1050,
      "filme": 1051,
      "##bilidade": 1052,
      "dificil": 1053,
      "peg": 1054,
      "te": 1055,
      "##racao": 1056,
      "##esse": 1057,
      "dec": 1058,
      "##tado": 1059,
      "noite": 1060,
      "estas": 1061,
      "##veis": 1062,
      "ep": 1063,
      "##jo": 1064,
      "porta": 1065,
      "posso": 1066,
      "neste": 1067,
      "acab": 1068,
      "fem": 1069,
      "pac": 1070,
      "pla": 1071,
      "tar": 1072,
      "tive": 1073,
      "##iste": 1074,
      "##dam": 1075,
      "mae": 1076,
      "##itos": 1077,
      "ajuda": 1078,
      "cel": 1079,
      "mal": 1080,
      "vir": 1081,
      "##vimento": 1082,
      "##ano": 1083,
      "##elho": 1084,
      "super": 1085,
      "respos": 1086,
      "especial": 1087,
      "lhes": 1088,
      "polit": 1089,
      "av": 1090,
      "cur": 1091,
      "##encias": 1092,
      "espe": 1093,
      "ped": 1094,
      "pesquis": 1095,
      "gostar": 1096,
      "interessa": 1097,
      "energia": 1098,
      "10": 1099,
      "mer": 1100,
      "##he": 1101,
      "dias": 1102,
      "inic": 1103,
      "realidade": 1104,
      "amigos": 1105,
      "fui": 1106,
      "homem": 1107,
      "gu": 1108,
      "gru": 1109,
      "##tam": 1110,
      "proje": 1111,
      "espa": 1112,
      "grandes": 1113,
      "penso": 1114,
      "descobr": 1115,
      "desaf": 1116,
      "viol": 1117,
      "##udar": 1118,
      "##rao": 1119,
      "##rada": 1120,
      "##itiv": 1121,
      "exa": 1122,
      "fazem": 1123,
      "deles": 1124,
      "consciencia": 1125,
      "ant": 1126,
      "cient": 1127,
      "diver": 1128,
      "feito": 1129,
      "nem": 1130,
      "viv": 1131,
      "##iao": 1132,
      "##lmente": 1133,
      "inform": 1134,
      "parec": 1135,
      "amer": 1136,
      "comecar": 1137,
      "pergunta": 1138,
      "aprend": 1139,
      "cresc": 1140,
      "##sem": 1141,
      "##mes": 1142,
      "quest": 1143,
      "##ario": 1144,
      "mus": 1145,
      "estados": 1146,
      "dados": 1147,
      "alim": 1148,
      "aquela": 1149,
      "arqu": 1150,
      "escola": 1151,
      "imagin": 1152,
      "frente": 1153,
      "##ramos": 1154,
      "##ende": 1155,
      "##ingu": 1156,
      "rep": 1157,
      "parece": 1158,
      "computa": 1159,
      "art": 1160,
      "##iedade": 1161,
      "aconteceu": 1162,
      "apo": 1163,
      "cu": 1164,
      "fos": 1165,
      "fis": 1166,
      "id": 1167,
      "##ual": 1168,
      "##has": 1169,
      "sex": 1170,
      "##eix": 1171,
      "estes": 1172,
      "obs": 1173,
      "trabalhar": 1174,
      "raz": 1175,
      "milhoes": 1176,
      "atraves": 1177,
      "ado": 1178,
      "peix": 1179,
      "rece": 1180,
      "tanto": 1181,
      "##teria": 1182,
      "##osa": 1183,
      "##tando": 1184,
      "empres": 1185,
      "existe": 1186,
      "##adores": 1187,
      "terra": 1188,
      "vidas": 1189,
      "numero": 1190,
      "tentando": 1191,
      "bon": 1192,
      "ef": 1193,
      "evolu": 1194,
      "via": 1195,
      "##ge": 1196,
      "##ugia": 1197,
      "mudar": 1198,
      "prog": 1199,
      "##ulas": 1200,
      "cerca": 1201,
      "luz": 1202,
      "refugia": 1203,
      "femin": 1204,
      "cal": 1205,
      "##fr": 1206,
      "##pera": 1207,
      "##elas": 1208,
      "compar": 1209,
      "trabalh": 1210,
      "facil": 1211,
      "bilhoes": 1212,
      "edific": 1213,
      "informacao": 1214,
      "ev": 1215,
      "nec": 1216,
      "nenh": 1217,
      "##icamente": 1218,
      "##anha": 1219,
      "fora": 1220,
      "modo": 1221,
      "sabemos": 1222,
      "simplesmente": 1223,
      "boa": 1224,
      "cabeca": 1225,
      "mostrar": 1226,
      "resposta": 1227,
      "##rei": 1228,
      "mant": 1229,
      "##ivid": 1230,
      "entender": 1231,
      "estran": 1232,
      "estru": 1233,
      "causa": 1234,
      "continu": 1235,
      "acontec": 1236,
      "claro": 1237,
      "possivel": 1238,
      "fim": 1239,
      "fez": 1240,
      "##ava": 1241,
      "ponto": 1242,
      "prova": 1243,
      "favor": 1244,
      "intel": 1245,
      "corpo": 1246,
      "ficar": 1247,
      "importa": 1248,
      "problemas": 1249,
      "jogos": 1250,
      "##bora": 1251,
      "governo": 1252,
      "ciencia": 1253,
      "minhas": 1254,
      "empre": 1255,
      "son": 1256,
      "reg": 1257,
      "desde": 1258,
      "comecei": 1259,
      "maioria": 1260,
      "cerebro": 1261,
      "fica": 1262,
      "las": 1263,
      "##tico": 1264,
      "##eram": 1265,
      "##icar": 1266,
      "##cado": 1267,
      "##ador": 1268,
      "saude": 1269,
      "alguma": 1270,
      "queria": 1271,
      "unica": 1272,
      "chamado": 1273,
      "encontrar": 1274,
      "jogo": 1275,
      "final": 1276,
      "compartil": 1277,
      "econ": 1278,
      "mao": 1279,
      "##para": 1280,
      "##ber": 1281,
      "def": 1282,
      "##ance": 1283,
      "##eita": 1284,
      "sol": 1285,
      "##encao": 1286,
      "serv": 1287,
      "terr": 1288,
      "aquele": 1289,
      "caminho": 1290,
      "nesse": 1291,
      "recon": 1292,
      "conseguir": 1293,
      "##graf": 1294,
      "existem": 1295,
      "cinco": 1296,
      "refugiados": 1297,
      "econom": 1298,
      "cir": 1299,
      "##oca": 1300,
      "##eiras": 1301,
      "daqu": 1302,
      "suc": 1303,
      "expl": 1304,
      "traz": 1305,
      "meses": 1306,
      "sabia": 1307,
      "##tivo": 1308,
      "comunidade": 1309,
      "norm": 1310,
      "feliz": 1311,
      "local": 1312,
      "confianca": 1313,
      "projeto": 1314,
      "are": 1315,
      "fra": 1316,
      "hon": 1317,
      "ted": 1318,
      "##net": 1319,
      "##ham": 1320,
      "##entemente": 1321,
      "mag": 1322,
      "maqu": 1323,
      "##ulo": 1324,
      "apl": 1325,
      "##turas": 1326,
      "imp": 1327,
      "pai": 1328,
      "ajudar": 1329,
      "quatro": 1330,
      "memoria": 1331,
      "tinham": 1332,
      "espaco": 1333,
      "arquite": 1334,
      "ident": 1335,
      "sen": 1336,
      "sendo": 1337,
      "##eis": 1338,
      "##oso": 1339,
      "##anos": 1340,
      "conv": 1341,
      "tom": 1342,
      "ens": 1343,
      "contro": 1344,
      "obrigada": 1345,
      "palavras": 1346,
      "gostaria": 1347,
      "questao": 1348,
      "intelig": 1349,
      "usa": 1350,
      "##tun": 1351,
      "##fa": 1352,
      "##enda": 1353,
      "fotos": 1354,
      "##izacao": 1355,
      "##icoes": 1356,
      "assist": 1357,
      "pass": 1358,
      "vide": 1359,
      "homens": 1360,
      "dinh": 1361,
      "ot": 1362,
      "ol": 1363,
      "##igu": 1364,
      "pop": 1365,
      "alem": 1366,
      "alun": 1367,
      "##cada": 1368,
      "apro": 1369,
      "princ": 1370,
      "##ixa": 1371,
      "respon": 1372,
      "segun": 1373,
      "imagens": 1374,
      "juntos": 1375,
      "dinheiro": 1376,
      "##uro": 1377,
      "##sion": 1378,
      "##ntar": 1379,
      "##icacao": 1380,
      "##anas": 1381,
      "envol": 1382,
      "disc": 1383,
      "espera": 1384,
      "queremos": 1385,
      "resol": 1386,
      "univer": 1387,
      "passado": 1388,
      "##ibil": 1389,
      "abr": 1390,
      "incr": 1391,
      "delas": 1392,
      "aut": 1393,
      "organ": 1394,
      "exatamente": 1395,
      "opor": 1396,
      "viver": 1397,
      "##rer": 1398,
      "##vens": 1399,
      "##essar": 1400,
      "##iga": 1401,
      "tipos": 1402,
      "unidos": 1403,
      "historias": 1404,
      "##culo": 1405,
      "ambiente": 1406,
      "provavel": 1407,
      "sucesso": 1408,
      "oportun": 1409,
      "atu": 1410,
      "oc": 1411,
      "##bol": 1412,
      "quis": 1413,
      "contar": 1414,
      "passar": 1415,
      "fundam": 1416,
      "ultimos": 1417,
      "produz": 1418,
      "bar": 1419,
      "can": 1420,
      "vem": 1421,
      "##gens": 1422,
      "##tencia": 1423,
      "##ral": 1424,
      "quais": 1425,
      "##encas": 1426,
      "anim": 1427,
      "insp": 1428,
      "acredito": 1429,
      "colocar": 1430,
      "naquele": 1431,
      "fosse": 1432,
      "receb": 1433,
      "princip": 1434,
      "base": 1435,
      "gas": 1436,
      "tentar": 1437,
      "##fon": 1438,
      "##ria": 1439,
      "##isso": 1440,
      "##icidade": 1441,
      "prote": 1442,
      "sus": 1443,
      "extra": 1444,
      "apos": 1445,
      "apres": 1446,
      "##idar": 1447,
      "resp": 1448,
      "filhos": 1449,
      "paises": 1450,
      "humanos": 1451,
      "processo": 1452,
      "usando": 1453,
      "pequena": 1454,
      "fotograf": 1455,
      "equip": 1456,
      "americ": 1457,
      "200": 1458,
      "inte": 1459,
      "ningu": 1460,
      "tele": 1461,
      "##tin": 1462,
      "##ord": 1463,
      "##ental": 1464,
      "seis": 1465,
      "##ton": 1466,
      "##son": 1467,
      "materia": 1468,
      "nome": 1469,
      "conta": 1470,
      "falando": 1471,
      "ideias": 1472,
      "carre": 1473,
      "novamente": 1474,
      "pensa": 1475,
      "jovens": 1476,
      "conversa": 1477,
      "escolhas": 1478,
      "razao": 1479,
      "ninguem": 1480,
      "cos": 1481,
      "cus": 1482,
      "ofer": 1483,
      "##nd": 1484,
      "##lus": 1485,
      "total": 1486,
      "podia": 1487,
      "perf": 1488,
      "semana": 1489,
      "caso": 1490,
      "pequeno": 1491,
      "norte": 1492,
      "planeta": 1493,
      "proximo": 1494,
      "000": 1495,
      "sala": 1496,
      "tes": 1497,
      "##sidade": 1498,
      "##titu": 1499,
      "##les": 1500,
      "##entas": 1501,
      "##eitos": 1502,
      "pobre": 1503,
      "##mais": 1504,
      "##iza": 1505,
      "querem": 1506,
      "pensei": 1507,
      "coleg": 1508,
      "sentir": 1509,
      "pudes": 1510,
      "visao": 1511,
      "relacion": 1512,
      "capazes": 1513,
      "obser": 1514,
      "gente": 1515,
      "leg": 1516,
      "vit": 1517,
      "##dro": 1518,
      "##estra": 1519,
      "dela": 1520,
      "som": 1521,
      "desc": 1522,
      "unico": 1523,
      "nessa": 1524,
      "##cional": 1525,
      "torna": 1526,
      "direito": 1527,
      "lugares": 1528,
      "olhar": 1529,
      "centenas": 1530,
      "longo": 1531,
      "cultura": 1532,
      "deveria": 1533,
      "30": 1534,
      "dist": 1535,
      "jorn": 1536,
      "mente": 1537,
      "minu": 1538,
      "##gas": 1539,
      "##eu": 1540,
      "##pec": 1541,
      "defic": 1542,
      "##tan": 1543,
      "##tamos": 1544,
      "medo": 1545,
      "##gou": 1546,
      "desse": 1547,
      "apa": 1548,
      "mode": 1549,
      "forca": 1550,
      "pelos": 1551,
      "passo": 1552,
      "corre": 1553,
      "humano": 1554,
      "fizemos": 1555,
      "comple": 1556,
      "funciona": 1557,
      "decid": 1558,
      "grupo": 1559,
      "alunos": 1560,
      "bus": 1561,
      "edu": 1562,
      "ris": 1563,
      "##ger": 1564,
      "##dio": 1565,
      "muita": 1566,
      "projet": 1567,
      "eng": 1568,
      "sair": 1569,
      "##ture": 1570,
      "aqueles": 1571,
      "##duz": 1572,
      "chamada": 1573,
      "novas": 1574,
      "finalmente": 1575,
      "proprio": 1576,
      "permit": 1577,
      "##iquei": 1578,
      "aplica": 1579,
      "provavelmente": 1580,
      "fl": 1581,
      "garo": 1582,
      "sin": 1583,
      "##tores": 1584,
      "##pia": 1585,
      "##let": 1586,
      "##asse": 1587,
      "demais": 1588,
      "##icion": 1589,
      "nature": 1590,
      "informa": 1591,
      "##ulacao": 1592,
      "termos": 1593,
      "##idente": 1594,
      "saber": 1595,
      "lev": 1596,
      "passa": 1597,
      "poucos": 1598,
      "melhores": 1599,
      "##ancia": 1600,
      "marca": 1601,
      "humana": 1602,
      "auto": 1603,
      "social": 1604,
      "sociedade": 1605,
      "aprender": 1606,
      "profun": 1607,
      "brin": 1608,
      "##lares": 1609,
      "varias": 1610,
      "violencia": 1611,
      "segunda": 1612,
      "lin": 1613,
      "situ": 1614,
      "##dem": 1615,
      "##vil": 1616,
      "decis": 1617,
      "core": 1618,
      "cola": 1619,
      "comb": 1620,
      "comigo": 1621,
      "##iva": 1622,
      "natura": 1623,
      "repres": 1624,
      "desta": 1625,
      "desses": 1626,
      "##idao": 1627,
      "##tivas": 1628,
      "transform": 1629,
      "individ": 1630,
      "liber": 1631,
      "interessante": 1632,
      "bl": 1633,
      "tre": 1634,
      "##ne": 1635,
      "##ass": 1636,
      "quar": 1637,
      "##orr": 1638,
      "esqu": 1639,
      "##imentos": 1640,
      "meta": 1641,
      "solu": 1642,
      "sul": 1643,
      "dessas": 1644,
      "perto": 1645,
      "amor": 1646,
      "formas": 1647,
      "##tivos": 1648,
      "pensamos": 1649,
      "nesta": 1650,
      "imagem": 1651,
      "##edia": 1652,
      "quant": 1653,
      "crianca": 1654,
      "acredita": 1655,
      "lhe": 1656,
      "felicidade": 1657,
      "palavra": 1658,
      "edificio": 1659,
      "natureza": 1660,
      "ama": 1661,
      "hou": 1662,
      "##tir": 1663,
      "##hao": 1664,
      "##erg": 1665,
      "dez": 1666,
      "deter": 1667,
      "##anca": 1668,
      "##teza": 1669,
      "##ioes": 1670,
      "explo": 1671,
      "aquilo": 1672,
      "companh": 1673,
      "comecou": 1674,
      "pensam": 1675,
      "segundo": 1676,
      "medic": 1677,
      "imaginar": 1678,
      "logo": 1679,
      "procu": 1680,
      "praz": 1681,
      "lembrar": 1682,
      "centro": 1683,
      "##iolog": 1684,
      "digital": 1685,
      "chegar": 1686,
      "##acional": 1687,
      "desenvolvimento": 1688,
      "ferram": 1689,
      "pacientes": 1690,
      "musica": 1691,
      "evolucao": 1692,
      "telefon": 1693,
      "ga": 1694,
      "gan": 1695,
      "nisso": 1696,
      "##line": 1697,
      "##ard": 1698,
      "##eno": 1699,
      "maos": 1700,
      "##guei": 1701,
      "estavamos": 1702,
      "entend": 1703,
      "rev": 1704,
      "redor": 1705,
      "inve": 1706,
      "exc": 1707,
      "semanas": 1708,
      "comecamos": 1709,
      "escolha": 1710,
      "horas": 1711,
      "acontecer": 1712,
      "perguntas": 1713,
      "propria": 1714,
      "construir": 1715,
      "capac": 1716,
      "bastante": 1717,
      "portanto": 1718,
      "tarde": 1719,
      "trabalhando": 1720,
      "bal": 1721,
      "bol": 1722,
      "fran": 1723,
      "mic": 1724,
      "##dia": 1725,
      "##ticos": 1726,
      "##fe": 1727,
      "dev": 1728,
      "##orda": 1729,
      "mult": 1730,
      "dolares": 1731,
      "ali": 1732,
      "extr": 1733,
      "estuda": 1734,
      "fazemos": 1735,
      "form": 1736,
      "resul": 1737,
      "online": 1738,
      "##ibu": 1739,
      "escra": 1740,
      "filha": 1741,
      "morte": 1742,
      "descon": 1743,
      "proxima": 1744,
      "rapido": 1745,
      "pegar": 1746,
      "incrivel": 1747,
      "idade": 1748,
      "lig": 1749,
      "mara": 1750,
      "nivel": 1751,
      "oce": 1752,
      "pior": 1753,
      "rou": 1754,
      "tim": 1755,
      "##mentos": 1756,
      "##th": 1757,
      "##ric": 1758,
      "##vendo": 1759,
      "cora": 1760,
      "##imas": 1761,
      "##elo": 1762,
      "##com": 1763,
      "cond": 1764,
      "conec": 1765,
      "estudo": 1766,
      "##izado": 1767,
      "sobrev": 1768,
      "pelas": 1769,
      "compre": 1770,
      "compet": 1771,
      "dizem": 1772,
      "preciso": 1773,
      "uns": 1774,
      "hora": 1775,
      "aber": 1776,
      "segui": 1777,
      "sentido": 1778,
      "tornar": 1779,
      "complex": 1780,
      "livro": 1781,
      "objetivo": 1782,
      "esperanca": 1783,
      "pesquisa": 1784,
      "necessar": 1785,
      "maquina": 1786,
      "15": 1787,
      "ata": 1788,
      "fiquei": 1789,
      "jan": 1790,
      "ur": 1791,
      "##uma": 1792,
      "##ch": 1793,
      "##ris": 1794,
      "##pend": 1795,
      "##bra": 1796,
      "##vio": 1797,
      "##xim": 1798,
      "dele": 1799,
      "devem": 1800,
      "comida": 1801,
      "##ins": 1802,
      "##ocu": 1803,
      "##gue": 1804,
      "enor": 1805,
      "acha": 1806,
      "preocu": 1807,
      "mesmos": 1808,
      "##erao": 1809,
      "arma": 1810,
      "certeza": 1811,
      "levar": 1812,
      "voltar": 1813,
      "possibil": 1814,
      "##torio": 1815,
      "ouvir": 1816,
      "rapida": 1817,
      "aument": 1818,
      "tivesse": 1819,
      "aprendi": 1820,
      "estrutura": 1821,
      "compartilhar": 1822,
      "video": 1823,
      "maravil": 1824,
      "100": 1825,
      "50": 1826,
      "fre": 1827,
      "hos": 1828,
      "san": 1829,
      "##unto": 1830,
      "##ante": 1831,
      "demo": 1832,
      "##tada": 1833,
      "comum": 1834,
      "##oco": 1835,
      "mont": 1836,
      "teria": 1837,
      "compor": 1838,
      "pensando": 1839,
      "precisam": 1840,
      "##hares": 1841,
      "medico": 1842,
      "##ficiente": 1843,
      "conceito": 1844,
      "limita": 1845,
      "inicio": 1846,
      "peixes": 1847,
      "identidade": 1848,
      "minutos": 1849,
      "informacoes": 1850,
      "ban": 1851,
      "cidades": 1852,
      "far": 1853,
      "min": 1854,
      "vemos": 1855,
      "##ncas": 1856,
      "##jar": 1857,
      "##arios": 1858,
      "##tamento": 1859,
      "##ena": 1860,
      "##elha": 1861,
      "##ilha": 1862,
      "somente": 1863,
      "##eza": 1864,
      "chance": 1865,
      "conside": 1866,
      "impres": 1867,
      "##inhos": 1868,
      "pag": 1869,
      "escolher": 1870,
      "filmes": 1871,
      "camera": 1872,
      "diferenca": 1873,
      "tornou": 1874,
      "milhares": 1875,
      "deixar": 1876,
      "olhos": 1877,
      "mudancas": 1878,
      "percebi": 1879,
      "servicos": 1880,
      "reconhec": 1881,
      "normal": 1882,
      "controle": 1883,
      "oportunidade": 1884,
      "pobreza": 1885,
      "completamente": 1886,
      "inveja": 1887,
      "escrav": 1888,
      "test": 1889,
      "##iro": 1890,
      "##gre": 1891,
      "##pen": 1892,
      "##vi": 1893,
      "##dades": 1894,
      "euro": 1895,
      "potencia": 1896,
      "alc": 1897,
      "##ack": 1898,
      "digo": 1899,
      "##cadas": 1900,
      "deste": 1901,
      "toma": 1902,
      "##hou": 1903,
      "movimento": 1904,
      "##idia": 1905,
      "comeca": 1906,
      "media": 1907,
      "carro": 1908,
      "atencao": 1909,
      "faca": 1910,
      "adul": 1911,
      "comunidades": 1912,
      "negoc": 1913,
      "acontecendo": 1914,
      "populacao": 1915,
      "autismo": 1916,
      "inspira": 1917,
      "equipe": 1918,
      "totalmente": 1919,
      "cento": 1920,
      "rem": 1921,
      "##gn": 1922,
      "##vacao": 1923,
      "##rados": 1924,
      "deus": 1925,
      "conte": 1926,
      "##issao": 1927,
      "##tados": 1928,
      "##ann": 1929,
      "##dei": 1930,
      "##entei": 1931,
      "sob": 1932,
      "estu": 1933,
      "tras": 1934,
      "possa": 1935,
      "##tividade": 1936,
      "peda": 1937,
      "trabalha": 1938,
      "chama": 1939,
      "manha": 1940,
      "conhecimento": 1941,
      "valor": 1942,
      "ruim": 1943,
      "neuro": 1944,
      "celular": 1945,
      "computador": 1946,
      "nenhuma": 1947,
      "arquitetura": 1948,
      "respeito": 1949,
      "situacao": 1950,
      "houve": 1951,
      "bara": 1952,
      "cha": 1953,
      "der": 1954,
      "jeito": 1955,
      "olha": 1956,
      "sil": 1957,
      "util": 1958,
      "##ipo": 1959,
      "##met": 1960,
      "##tem": 1961,
      "##tre": 1962,
      "##tei": 1963,
      "##vida": 1964,
      "##ker": 1965,
      "##osos": 1966,
      "deve": 1967,
      "##ise": 1968,
      "estado": 1969,
      "sofr": 1970,
      "##aca": 1971,
      "ino": 1972,
      "dese": 1973,
      "design": 1974,
      "andar": 1975,
      "pessoal": 1976,
      "perd": 1977,
      "assum": 1978,
      "campo": 1979,
      "nasc": 1980,
      "##ancar": 1981,
      "ating": 1982,
      "inclu": 1983,
      "vejo": 1984,
      "palestra": 1985,
      "particular": 1986,
      "capaz": 1987,
      "tivemos": 1988,
      "guer": 1989,
      "nenhum": 1990,
      "manter": 1991,
      "cirur": 1992,
      "sust": 1993,
      "extraord": 1994,
      "colegas": 1995,
      "modelo": 1996,
      "educ": 1997,
      "lingua": 1998,
      "individu": 1999,
      "fe": 2000,
      "glo": 2001,
      "pi": 2002,
      "uso": 2003,
      "##ato": 2004,
      "##semos": 2005,
      "##mit": 2006,
      "##be": 2007,
      "quim": 2008,
      "entrar": 2009,
      "faco": 2010,
      "enc": 2011,
      "aquelas": 2012,
      "##ider": 2013,
      "##ixon": 2014,
      "impos": 2015,
      "intern": 2016,
      "maiores": 2017,
      "tenha": 2018,
      "especiais": 2019,
      "veem": 2020,
      "profess": 2021,
      "voz": 2022,
      "errado": 2023,
      "particip": 2024,
      "epoca": 2025,
      "tare": 2026,
      "peixe": 2027,
      "program": 2028,
      "inteligencia": 2029,
      "natural": 2030,
      "liberdade": 2031,
      "hosp": 2032,
      "jam": 2033,
      "jul": 2034,
      "linha": 2035,
      "mist": 2036,
      "ok": 2037,
      "##cio": 2038,
      "##raf": 2039,
      "##eros": 2040,
      "decada": 2041,
      "##damente": 2042,
      "##deira": 2043,
      "##imer": 2044,
      "##eitar": 2045,
      "ponte": 2046,
      "dom": 2047,
      "rea": 2048,
      "fantas": 2049,
      "ton": 2050,
      "##cep": 2051,
      "poderiamos": 2052,
      "consegue": 2053,
      "jovem": 2054,
      "##grama": 2055,
      "##culos": 2056,
      "201": 2057,
      "sociais": 2058,
      "pequenos": 2059,
      "locais": 2060,
      "escrever": 2061,
      "##heimer": 2062,
      "##itivas": 2063,
      "cientistas": 2064,
      "empresas": 2065,
      "apaixon": 2066,
      "metade": 2067,
      "determin": 2068,
      "oceano": 2069,
      "80": 2070,
      "dor": 2071,
      "flu": 2072,
      "ge": 2073,
      "ira": 2074,
      "ior": 2075,
      "ps": 2076,
      "tor": 2077,
      "vac": 2078,
      "vendo": 2079,
      "veio": 2080,
      "##rem": 2081,
      "##log": 2082,
      "##esar": 2083,
      "##dou": 2084,
      "##orte": 2085,
      "##and": 2086,
      "##teg": 2087,
      "sof": 2088,
      "soz": 2089,
      "alto": 2090,
      "suficiente": 2091,
      "hav": 2092,
      "habilidade": 2093,
      "dispos": 2094,
      "compara": 2095,
      "##ursos": 2096,
      "escr": 2097,
      "menina": 2098,
      "medicos": 2099,
      "procras": 2100,
      "vejam": 2101,
      "deixa": 2102,
      "varios": 2103,
      "publica": 2104,
      "material": 2105,
      "maravilhos": 2106,
      "educacao": 2107,
      "iorque": 2108,
      "div": 2109,
      "jus": 2110,
      "mec": 2111,
      "oh": 2112,
      "rela": 2113,
      "tro": 2114,
      "trou": 2115,
      "##tec": 2116,
      "##pas": 2117,
      "##las": 2118,
      "##zheimer": 2119,
      "##esto": 2120,
      "ess": 2121,
      "##dap": 2122,
      "##amentos": 2123,
      "doenca": 2124,
      "alzheimer": 2125,
      "anal": 2126,
      "anato": 2127,
      "enfr": 2128,
      "apesar": 2129,
      "##izando": 2130,
      "terc": 2131,
      "partes": 2132,
      "espac": 2133,
      "##ixao": 2134,
      "conser": 2135,
      "aba": 2136,
      "abso": 2137,
      "filho": 2138,
      "casos": 2139,
      "poderiam": 2140,
      "ficam": 2141,
      "possu": 2142,
      "morrer": 2143,
      "pratic": 2144,
      "dificeis": 2145,
      "invest": 2146,
      "computadores": 2147,
      "artigo": 2148,
      "area": 2149,
      "quiser": 2150,
      "animais": 2151,
      "##lusao": 2152,
      "procrastin": 2153,
      "troux": 2154,
      "anatom": 2155,
      ",\"": 2156,
      "avo": 2157,
      "adap": 2158,
      "ben": 2159,
      "beb": 2160,
      "biolog": 2161,
      "mol": 2162,
      "melho": 2163,
      "rom": 2164,
      "toc": 2165,
      "##at": 2166,
      "##tis": 2167,
      "##ribu": 2168,
      "##vis": 2169,
      "##radas": 2170,
      "cod": 2171,
      "cogn": 2172,
      "##entais": 2173,
      "embora": 2174,
      "##ivos": 2175,
      "doencas": 2176,
      "inves": 2177,
      "##resso": 2178,
      "expres": 2179,
      "estiv": 2180,
      "serem": 2181,
      "ach": 2182,
      "espero": 2183,
      "arm": 2184,
      "pensamento": 2185,
      "criamos": 2186,
      "perguntar": 2187,
      "direitos": 2188,
      "##essem": 2189,
      "lembro": 2190,
      "acreditar": 2191,
      "geracao": 2192,
      "relacao": 2193,
      "publico": 2194,
      "especialmente": 2195,
      "politica": 2196,
      "divert": 2197,
      "imaginem": 2198,
      "sexo": 2199,
      "necess": 2200,
      "impac": 2201,
      "aproxim": 2202,
      "deficiencia": 2203,
      "brincar": 2204,
      "guerra": 2205,
      "jamais": 2206,
      "essencia": 2207,
      "absolu": 2208,
      "18": 2209,
      "fec": 2210,
      "hol": 2211,
      "midia": 2212,
      "of": 2213,
      "pix": 2214,
      "sens": 2215,
      "##iencias": 2216,
      "##rica": 2217,
      "##bar": 2218,
      "##val": 2219,
      "deu": 2220,
      "##tavel": 2221,
      "mund": 2222,
      "conex": 2223,
      "prov": 2224,
      "programa": 2225,
      "ing": 2226,
      "estre": 2227,
      "##encion": 2228,
      "fome": 2229,
      "caixa": 2230,
      "sauda": 2231,
      "mon": 2232,
      "acor": 2233,
      "partir": 2234,
      "prepara": 2235,
      "ampl": 2236,
      "##ced": 2237,
      "dizendo": 2238,
      "labora": 2239,
      "##urso": 2240,
      "corpos": 2241,
      "internet": 2242,
      "medida": 2243,
      "clima": 2244,
      "encontramos": 2245,
      "##talia": 2246,
      "##ificar": 2247,
      "most": 2248,
      "gosto": 2249,
      "##bilidades": 2250,
      "infel": 2251,
      "livros": 2252,
      "opin": 2253,
      "tax": 2254,
      "teve": 2255,
      "paciente": 2256,
      "descobrir": 2257,
      "desafios": 2258,
      "empresa": 2259,
      "estruturas": 2260,
      "sonho": 2261,
      "defin": 2262,
      "ensin": 2263,
      "fundamental": 2264,
      "risco": 2265,
      "##comp": 2266,
      "mecan": 2267,
      "40": 2268,
      "bac": 2269,
      "lite": 2270,
      "pet": 2271,
      "tam": 2272,
      "venc": 2273,
      "verao": 2274,
      "yor": 2275,
      "##gos": 2276,
      "##ea": 2277,
      "##pel": 2278,
      "##bus": 2279,
      "##rava": 2280,
      "##esta": 2281,
      "co2": 2282,
      "##dora": 2283,
      "esfor": 2284,
      "emoc": 2285,
      "emerg": 2286,
      "##ivil": 2287,
      "##ivamente": 2288,
      "confor": 2289,
      "reun": 2290,
      "##gon": 2291,
      "##itivo": 2292,
      "categ": 2293,
      "momentos": 2294,
      "crit": 2295,
      "inteira": 2296,
      "arte": 2297,
      "escala": 2298,
      "diante": 2299,
      "menor": 2300,
      "seguranca": 2301,
      "ficou": 2302,
      "direcao": 2303,
      "baixo": 2304,
      "jogadores": 2305,
      "visual": 2306,
      "africa": 2307,
      "complica": 2308,
      "mudanca": 2309,
      "ultima": 2310,
      "agric": 2311,
      "deveriam": 2312,
      "superfic": 2313,
      "grupos": 2314,
      "desafio": 2315,
      "abrir": 2316,
      "apresent": 2317,
      "legal": 2318,
      "engenh": 2319,
      "flores": 2320,
      "decisoes": 2321,
      "ferramentas": 2322,
      "extrem": 2323,
      "enorme": 2324,
      "europa": 2325,
      "hospital": 2326,
      "laboratorio": 2327,
      "infeliz": 2328,
      "litera": 2329,
      "60": 2330,
      "az": 2331,
      "cida": 2332,
      "cima": 2333,
      "dr": 2334,
      "dim": 2335,
      "gar": 2336,
      "il": 2337,
      "igu": 2338,
      "ms": 2339,
      "memb": 2340,
      "oito": 2341,
      "tur": 2342,
      "viz": 2343,
      "##ud": 2344,
      "##ly": 2345,
      "##xo": 2346,
      "comer": 2347,
      "maca": 2348,
      "##sequ": 2349,
      "rede": 2350,
      "suic": 2351,
      "tempos": 2352,
      "##itor": 2353,
      "exp": 2354,
      "exec": 2355,
      "exig": 2356,
      "estrada": 2357,
      "##tuma": 2358,
      "##plos": 2359,
      "china": 2360,
      "acima": 2361,
      "pare": 2362,
      "parecer": 2363,
      "dispon": 2364,
      "cru": 2365,
      "compro": 2366,
      "certa": 2367,
      "papel": 2368,
      "primeiros": 2369,
      "leis": 2370,
      "diag": 2371,
      "corr": 2372,
      "fundo": 2373,
      "disseram": 2374,
      "chamamos": 2375,
      "##terias": 2376,
      "irma": 2377,
      "juntas": 2378,
      "institu": 2379,
      "fizeram": 2380,
      "visto": 2381,
      "usamos": 2382,
      "lembranca": 2383,
      "sistemas": 2384,
      "memor": 2385,
      "chegou": 2386,
      "surg": 2387,
      "aumento": 2388,
      "virus": 2389,
      "virtu": 2390,
      "curios": 2391,
      "imaginacao": 2392,
      "edificios": 2393,
      "importantes": 2394,
      "empreende": 2395,
      "regist": 2396,
      "normalmente": 2397,
      "areas": 2398,
      "olim": 2399,
      "pudesse": 2400,
      "prazo": 2401,
      "seguinte": 2402,
      "programas": 2403,
      "impacto": 2404,
      "pixel": 2405,
      "11": 2406,
      "ia": 2407,
      "lidar": 2408,
      "tru": 2409,
      "vest": 2410,
      "##sivel": 2411,
      "##man": 2412,
      "##hece": 2413,
      "##ven": 2414,
      "##los": 2415,
      "esquer": 2416,
      "##amo": 2417,
      "sejam": 2418,
      "seculo": 2419,
      "mudou": 2420,
      "dai": 2421,
      "alta": 2422,
      "propos": 2423,
      "inde": 2424,
      "desem": 2425,
      "##ites": 2426,
      "##uldade": 2427,
      "fazenda": 2428,
      "pers": 2429,
      "haver": 2430,
      "espal": 2431,
      "##ona": 2432,
      "assus": 2433,
      "amigo": 2434,
      "##itais": 2435,
      "arvor": 2436,
      "abra": 2437,
      "senti": 2438,
      "conseguimos": 2439,
      "olhando": 2440,
      "capital": 2441,
      "governos": 2442,
      "naquela": 2443,
      "sinto": 2444,
      "objetos": 2445,
      "celulas": 2446,
      "malu": 2447,
      "alimentos": 2448,
      "repente": 2449,
      "ganhar": 2450,
      "capacidade": 2451,
      "frequ": 2452,
      "limitacoes": 2453,
      "silenc": 2454,
      "global": 2455,
      "anatomia": 2456,
      "absolutamente": 2457,
      "york": 2458,
      "agricul": 2459,
      "arvore": 2460,
      "3d": 2461,
      "ativ": 2462,
      "eg": 2463,
      "jard": 2464,
      "lider": 2465,
      "nela": 2466,
      "tex": 2467,
      "##ti": 2468,
      "##ry": 2469,
      "##pica": 2470,
      "##bos": 2471,
      "##ission": 2472,
      "##inos": 2473,
      "##ama": 2474,
      "##ane": 2475,
      "##ront": 2476,
      "sel": 2477,
      "paral": 2478,
      "porc": 2479,
      "metros": 2480,
      "consequ": 2481,
      "dirig": 2482,
      "indo": 2483,
      "destru": 2484,
      "##istica": 2485,
      "fomos": 2486,
      "habilidades": 2487,
      "acesso": 2488,
      "esper": 2489,
      "##ogle": 2490,
      "##ifico": 2491,
      "forte": 2492,
      "fala": 2493,
      "criando": 2494,
      "esteja": 2495,
      "paz": 2496,
      "verdadeira": 2497,
      "##elhos": 2498,
      "mensa": 2499,
      "funda": 2500,
      "##ticas": 2501,
      "diretamente": 2502,
      "morre": 2503,
      "presidente": 2504,
      "google": 2505,
      "afeta": 2506,
      "familias": 2507,
      "plane": 2508,
      "graf": 2509,
      "memorias": 2510,
      "##minist": 2511,
      "tinhamos": 2512,
      "planta": 2513,
      "esperando": 2514,
      "mergu": 2515,
      "descobri": 2516,
      "apoio": 2517,
      "fisico": 2518,
      "efeito": 2519,
      "explicar": 2520,
      "resolver": 2521,
      "descre": 2522,
      "##piadas": 2523,
      "quarto": 2524,
      "resultado": 2525,
      "potencial": 2526,
      "sustenta": 2527,
      "extraordinar": 2528,
      "taman": 2529,
      "superficie": 2530,
      "diagnos": 2531,
      "bel": 2532,
      "cro": 2533,
      "gol": 2534,
      "irao": 2535,
      "ke": 2536,
      "ler": 2537,
      "linhas": 2538,
      "pil": 2539,
      "tendo": 2540,
      "vel": 2541,
      "##oo": 2542,
      "##tle": 2543,
      "##cando": 2544,
      "##cter": 2545,
      "##jamos": 2546,
      "##este": 2547,
      "separa": 2548,
      "##ques": 2549,
      "mun": 2550,
      "povo": 2551,
      "notic": 2552,
      "estat": 2553,
      "nacional": 2554,
      "massa": 2555,
      "desl": 2556,
      "##itas": 2557,
      "##unda": 2558,
      "##ustr": 2559,
      "fazia": 2560,
      "perio": 2561,
      "eletr": 2562,
      "aceitar": 2563,
      "##etas": 2564,
      "assunto": 2565,
      "pele": 2566,
      "consigo": 2567,
      "##veu": 2568,
      "##ceu": 2569,
      "falta": 2570,
      "falamos": 2571,
      "pensem": 2572,
      "criacao": 2573,
      "tirar": 2574,
      "##tron": 2575,
      "##ducao": 2576,
      "recursos": 2577,
      "clin": 2578,
      "##leo": 2579,
      "pena": 2580,
      "especie": 2581,
      "humanidade": 2582,
      "encontrei": 2583,
      "tecnicas": 2584,
      "administ": 2585,
      "experiencias": 2586,
      "pequenas": 2587,
      "funcionar": 2588,
      "profission": 2589,
      "proximos": 2590,
      "industr": 2591,
      "brilha": 2592,
      "ultimo": 2593,
      "caracter": 2594,
      "geralmente": 2595,
      "longe": 2596,
      "cultiv": 2597,
      "perceber": 2598,
      "precisava": 2599,
      "chefe": 2600,
      "opera": 2601,
      "palco": 2602,
      "salvar": 2603,
      "libera": 2604,
      "teoria": 2605,
      "emprego": 2606,
      "sensa": 2607,
      "carreira": 2608,
      "custo": 2609,
      "jornal": 2610,
      "coreia": 2611,
      "representa": 2612,
      "medicina": 2613,
      "trouxe": 2614,
      "bene": 2615,
      "infelizmente": 2616,
      "olimpiadas": 2617,
      "veloc": 2618,
      "13": 2619,
      "90": 2620,
      "agu": 2621,
      "acomp": 2622,
      "dra": 2623,
      "doc": 2624,
      "divid": 2625,
      "lei": 2626,
      "namo": 2627,
      "orig": 2628,
      "sir": 2629,
      "sorte": 2630,
      "vive": 2631,
      "##nas": 2632,
      "##tao": 2633,
      "##hando": 2634,
      "##ph": 2635,
      "##bel": 2636,
      "##vin": 2637,
      "##rais": 2638,
      "##racoes": 2639,
      "##ers": 2640,
      "##erios": 2641,
      "deba": 2642,
      "##inacao": 2643,
      "sete": 2644,
      "##arao": 2645,
      "##aramente": 2646,
      "emba": 2647,
      "conhece": 2648,
      "ang": 2649,
      "anda": 2650,
      "##ustra": 2651,
      "engra": 2652,
      "faze": 2653,
      "##ensao": 2654,
      "motiv": 2655,
      "parc": 2656,
      "verm": 2657,
      "mesmas": 2658,
      "##idio": 2659,
      "inteiro": 2660,
      "certamente": 2661,
      "paixao": 2662,
      "colet": 2663,
      "recentemente": 2664,
      "mila": 2665,
      "tenham": 2666,
      "junto": 2667,
      "bat": 2668,
      "jogar": 2669,
      "comunicacao": 2670,
      "mudando": 2671,
      "construcao": 2672,
      "robo": 2673,
      "polic": 2674,
      "permite": 2675,
      "aparencia": 2676,
      "##itiva": 2677,
      "cuida": 2678,
      "bons": 2679,
      "feminista": 2680,
      "responsa": 2681,
      "oferec": 2682,
      "trein": 2683,
      "procurando": 2684,
      "aumentada": 2685,
      "neuroc": 2686,
      "tarefa": 2687,
      "psic": 2688,
      "abaixo": 2689,
      "codigo": 2690,
      "cognitivas": 2691,
      "literalmente": 2692,
      "cidada": 2693,
      "independ": 2694,
      "16": 2695,
      "24": 2696,
      "bib": 2697,
      "cho": 2698,
      "fico": 2699,
      "gr": 2700,
      "gara": 2701,
      "lixo": 2702,
      "ment": 2703,
      "ras": 2704,
      "tu": 2705,
      "tela": 2706,
      "the": 2707,
      "uru": 2708,
      "vista": 2709,
      "##irar": 2710,
      "##nia": 2711,
      "##drao": 2712,
      "##mar": 2713,
      "##ts": 2714,
      "##cam": 2715,
      "##cle": 2716,
      "##hn": 2717,
      "##raram": 2718,
      "##erencia": 2719,
      "dem": 2720,
      "coracao": 2721,
      "##iss": 2722,
      "##isse": 2723,
      "##entando": 2724,
      "##ines": 2725,
      "##ang": 2726,
      "##elos": 2727,
      "##ecas": 2728,
      "parar": 2729,
      "##ocao": 2730,
      "##eitas": 2731,
      "pontos": 2732,
      "asl": 2733,
      "revolu": 2734,
      "##resc": 2735,
      "engan": 2736,
      "##izada": 2737,
      "hab": 2738,
      "mod": 2739,
      "acham": 2740,
      "distan": 2741,
      "crim": 2742,
      "##idencia": 2743,
      "queriam": 2744,
      "forn": 2745,
      "pros": 2746,
      "resta": 2747,
      "posicao": 2748,
      "comecando": 2749,
      "viu": 2750,
      "menino": 2751,
      "medio": 2752,
      "tornaram": 2753,
      "volu": 2754,
      "confl": 2755,
      "ficaram": 2756,
      "junt": 2757,
      "numeros": 2758,
      "quantas": 2759,
      "aud": 2760,
      "nuvem": 2761,
      "coloca": 2762,
      "infec": 2763,
      "infancia": 2764,
      "desapar": 2765,
      "india": 2766,
      "geral": 2767,
      "deveriamos": 2768,
      "cheguei": 2769,
      "surpre": 2770,
      "198": 2771,
      "ruas": 2772,
      "tratamento": 2773,
      "ferias": 2774,
      "escrevi": 2775,
      "politicos": 2776,
      "guar": 2777,
      "##tamentos": 2778,
      "cientifica": 2779,
      "america": 2780,
      "cresci": 2781,
      "efeitos": 2782,
      "terror": 2783,
      "otimo": 2784,
      "univers": 2785,
      "universidade": 2786,
      "americanos": 2787,
      "##izacoes": 2788,
      "projetos": 2789,
      "##letas": 2790,
      "time": 2791,
      "necessario": 2792,
      "escravidao": 2793,
      "negocio": 2794,
      "remo": 2795,
      "pedaco": 2796,
      "desejo": 2797,
      "incluindo": 2798,
      "domest": 2799,
      "##estoes": 2800,
      "esquerda": 2801,
      "benefic": 2802,
      "velocidade": 2803,
      "bibl": 2804,
      "!\"": 2805,
      "25": 2806,
      "500": 2807,
      "70": 2808,
      "be": 2809,
      "bre": 2810,
      "bura": 2811,
      "fas": 2812,
      "front": 2813,
      "gl": 2814,
      "hor": 2815,
      "hero": 2816,
      "italia": 2817,
      "lou": 2818,
      "pan": 2819,
      "pul": 2820,
      "ros": 2821,
      "ste": 2822,
      "vimos": 2823,
      "vindo": 2824,
      "##ik": 2825,
      "##dios": 2826,
      "##fi": 2827,
      "##her": 2828,
      "##espera": 2829,
      "questoes": 2830,
      "dei": 2831,
      "decadas": 2832,
      "##taram": 2833,
      "##talh": 2834,
      "##inal": 2835,
      "muse": 2836,
      "##iou": 2837,
      "##itulo": 2838,
      "enco": 2839,
      "envia": 2840,
      "seres": 2841,
      "seriam": 2842,
      "##izadas": 2843,
      "monte": 2844,
      "teremos": 2845,
      "##ional": 2846,
      "mesa": 2847,
      "ame": 2848,
      "resto": 2849,
      "##rario": 2850,
      "consul": 2851,
      "consum": 2852,
      "##adamente": 2853,
      "comeco": 2854,
      "criatividade": 2855,
      "padro": 2856,
      "padrao": 2857,
      "colo": 2858,
      "escond": 2859,
      "leoes": 2860,
      "abs": 2861,
      "escu": 2862,
      "duvida": 2863,
      "meninas": 2864,
      "seguro": 2865,
      "chamo": 2866,
      "maneiras": 2867,
      "perguntei": 2868,
      "##iedades": 2869,
      "marte": 2870,
      "possam": 2871,
      "experim": 2872,
      "financ": 2873,
      "nucle": 2874,
      "concre": 2875,
      "exemplos": 2876,
      "significado": 2877,
      "plano": 2878,
      "ambos": 2879,
      "bilhao": 2880,
      "nega": 2881,
      "new": 2882,
      "genet": 2883,
      "plata": 2884,
      "pesquisas": 2885,
      "vivemos": 2886,
      "parecia": 2887,
      "alimentar": 2888,
      "sonhos": 2889,
      "regras": 2890,
      "passei": 2891,
      "oportunidades": 2892,
      "produzir": 2893,
      "pensava": 2894,
      "micro": 2895,
      "coraj": 2896,
      "possibilidade": 2897,
      "rapidamente": 2898,
      "demons": 2899,
      "impression": 2900,
      "assumir": 2901,
      "impossivel": 2902,
      "internacional": 2903,
      "praticamente": 2904,
      "armario": 2905,
      "mundial": 2906,
      "opiniao": 2907,
      "truque": 2908,
      "proposito": 2909,
      "perspec": 2910,
      "tamanho": 2911,
      "periodo": 2912,
      "angeles": 2913,
      "psicolog": 2914,
      "domestica": 2915,
      "12": 2916,
      "300": 2917,
      "ah": 2918,
      "amos": 2919,
      "bic": 2920,
      "canc": 2921,
      "dando": 2922,
      "famos": 2923,
      "ganh": 2924,
      "km": 2925,
      "ln": 2926,
      "lista": 2927,
      "peca": 2928,
      "racional": 2929,
      "senh": 2930,
      "ven": 2931,
      "zero": 2932,
      "##ies": 2933,
      "##tel": 2934,
      "##pro": 2935,
      "##vos": 2936,
      "##jas": 2937,
      "##osco": 2938,
      "##ash": 2939,
      "quao": 2940,
      "detalh": 2941,
      "##ismos": 2942,
      "##tadas": 2943,
      "##inio": 2944,
      "##amp": 2945,
      "seda": 2946,
      "eua": 2947,
      "max": 2948,
      "##ila": 2949,
      "##hada": 2950,
      "diga": 2951,
      "ret": 2952,
      "revel": 2953,
      "suced": 2954,
      "desist": 2955,
      "exam": 2956,
      "exter": 2957,
      "estiver": 2958,
      "##una": 2959,
      "caus": 2960,
      "##ume": 2961,
      "chines": 2962,
      "acess": 2963,
      "crise": 2964,
      "##iforn": 2965,
      "contem": 2966,
      "contrario": 2967,
      "obvia": 2968,
      "imedia": 2969,
      "comecaram": 2970,
      "lua": 2971,
      "##trou": 2972,
      "colon": 2973,
      "##porte": 2974,
      "simbol": 2975,
      "seguir": 2976,
      "recom": 2977,
      "##eladas": 2978,
      "puder": 2979,
      "conseguem": 2980,
      "##gados": 2981,
      "baker": 2982,
      "adver": 2983,
      "quad": 2984,
      "presente": 2985,
      "usam": 2986,
      "pesca": 2987,
      "transforma": 2988,
      "tecnologias": 2989,
      "conversar": 2990,
      "produtos": 2991,
      "basicamente": 2992,
      "perman": 2993,
      "cinz": 2994,
      "199": 2995,
      "trem": 2996,
      "erros": 2997,
      "acabar": 2998,
      "celula": 2999,
      "aliment": 3000,
      "progresso": 3001,
      "californ": 3002,
      "##perar": 3003,
      "continuar": 3004,
      "felizes": 3005,
      "convida": 3006,
      "envolv": 3007,
      "costuma": 3008,
      "relacionamento": 3009,
      "decidi": 3010,
      "busca": 3011,
      "projetar": 3012,
      "transformar": 3013,
      "esquec": 3014,
      "solucao": 3015,
      "quantidade": 3016,
      "revista": 3017,
      "sobreviv": 3018,
      "urb": 3019,
      "sangue": 3020,
      "##anner": 3021,
      "inovacao": 3022,
      "terceira": 3023,
      "melhorar": 3024,
      "extremamente": 3025,
      "membros": 3026,
      "pixels": 3027,
      "beleza": 3028,
      "distancia": 3029,
      "padroes": 3030,
      "nuclear": 3031,
      "california": 3032,
      ".”": 3033,
      "agra": 3034,
      "bra": 3035,
      "cre": 3036,
      "dan": 3037,
      "ebol": 3038,
      "har": 3039,
      "horr": 3040,
      "lanc": 3041,
      "nr": 3042,
      "opos": 3043,
      "pia": 3044,
      "tera": 3045,
      "tiver": 3046,
      "tenta": 3047,
      "usado": 3048,
      "wor": 3049,
      "##gen": 3050,
      "##cre": 3051,
      "##bres": 3052,
      "##lam": 3053,
      "##ks": 3054,
      "##erc": 3055,
      "##erior": 3056,
      "den": 3057,
      "depar": 3058,
      "##isao": 3059,
      "queim": 3060,
      "##iante": 3061,
      "esca": 3062,
      "comet": 3063,
      "##ice": 3064,
      "##icio": 3065,
      "##anda": 3066,
      "##sona": 3067,
      "emma": 3068,
      "##cou": 3069,
      "mat": 3070,
      "asso": 3071,
      "nove": 3072,
      "metal": 3073,
      "nav": 3074,
      "prop": 3075,
      "mascul": 3076,
      "##ress": 3077,
      "exerc": 3078,
      "##ulos": 3079,
      "##isticas": 3080,
      "perigos": 3081,
      "persona": 3082,
      "##entou": 3083,
      "sai": 3084,
      "mov": 3085,
      "versao": 3086,
      "vergon": 3087,
      "preenc": 3088,
      "prefer": 3089,
      "contribu": 3090,
      "amar": 3091,
      "intu": 3092,
      "##itacao": 3093,
      "comprar": 3094,
      "sabiam": 3095,
      "impl": 3096,
      "dizia": 3097,
      "comecam": 3098,
      "##inados": 3099,
      "aborda": 3100,
      "caminh": 3101,
      "rad": 3102,
      "torno": 3103,
      "poucas": 3104,
      "iria": 3105,
      "irmas": 3106,
      "ficcao": 3107,
      "consegui": 3108,
      "baix": 3109,
      "faculdade": 3110,
      "insta": 3111,
      "jogando": 3112,
      "##ificacao": 3113,
      "conheci": 3114,
      "conhecer": 3115,
      "proprios": 3116,
      "familiar": 3117,
      "orgu": 3118,
      "colocamos": 3119,
      "ouvi": 3120,
      "conversas": 3121,
      "livre": 3122,
      "surpres": 3123,
      "levant": 3124,
      "pedir": 3125,
      "mercado": 3126,
      "fisica": 3127,
      "feminismo": 3128,
      "economia": 3129,
      "arquitetos": 3130,
      "videos": 3131,
      "responder": 3132,
      "resolu": 3133,
      "fotografia": 3134,
      "teste": 3135,
      "levou": 3136,
      "companhia": 3137,
      "procurar": 3138,
      "olhada": 3139,
      "particularmente": 3140,
      "cirurgia": 3141,
      "quimicos": 3142,
      "professor": 3143,
      "participar": 3144,
      "achei": 3145,
      "emergencia": 3146,
      "categorias": 3147,
      "igual": 3148,
      "suicidio": 3149,
      "silencio": 3150,
      "paralis": 3151,
      "sensacao": 3152,
      "cidadaos": 3153,
      "urubus": 3154,
      "surpreend": 3155,
      "plataforma": 3156,
      "ebola": 3157,
      "'.": 3158,
      "14": 3159,
      "17": 3160,
      "aco": 3161,
      "ber": 3162,
      "bor": 3163,
      "bran": 3164,
      "gre": 3165,
      "kanner": 3166,
      "lar": 3167,
      "lac": 3168,
      "lit": 3169,
      "mencion": 3170,
      "nocao": 3171,
      "rei": 3172,
      "rio": 3173,
      "rac": 3174,
      "tend": 3175,
      "tentei": 3176,
      "titulo": 3177,
      "vivo": 3178,
      "##ipl": 3179,
      "##ique": 3180,
      "##au": 3181,
      "##ad": 3182,
      "##cer": 3183,
      "##cios": 3184,
      "##hamos": 3185,
      "##pao": 3186,
      "##pico": 3187,
      "ded": 3188,
      "quebra": 3189,
      "##enom": 3190,
      "##inada": 3191,
      "##ania": 3192,
      "sequ": 3193,
      "segre": 3194,
      "##quei": 3195,
      "##quinho": 3196,
      "##ocra": 3197,
      "dado": 3198,
      "##sex": 3199,
      "entro": 3200,
      "entanto": 3201,
      "entrou": 3202,
      "regu": 3203,
      "fabr": 3204,
      "##vado": 3205,
      "##vador": 3206,
      "##iros": 3207,
      "eletron": 3208,
      "termin": 3209,
      "parque": 3210,
      "prem": 3211,
      "arris": 3212,
      "falam": 3213,
      "criaturas": 3214,
      "coleta": 3215,
      "camara": 3216,
      "viram": 3217,
      "radio": 3218,
      "milhao": 3219,
      "novos": 3220,
      "class": 3221,
      "entrev": 3222,
      "voltei": 3223,
      "plas": 3224,
      "baixa": 3225,
      "pratica": 3226,
      "##ulares": 3227,
      "producao": 3228,
      "frustra": 3229,
      "chegamos": 3230,
      "interesse": 3231,
      "vale": 3232,
      "poderosa": 3233,
      "cerebros": 3234,
      "opcoes": 3235,
      "aumentar": 3236,
      "pega": 3237,
      "decl": 3238,
      "cuidar": 3239,
      "sexual": 3240,
      "estranho": 3241,
      "daquele": 3242,
      "explica": 3243,
      "trazer": 3244,
      "frag": 3245,
      "magico": 3246,
      "tomar": 3247,
      "ensinar": 3248,
      "atualmente": 3249,
      "recebi": 3250,
      "principal": 3251,
      "americano": 3252,
      "integra": 3253,
      "vitimas": 3254,
      "##duzir": 3255,
      "##ney": 3256,
      "solucoes": 3257,
      "ferramenta": 3258,
      "devemos": 3259,
      "achava": 3260,
      "preocupa": 3261,
      "adultos": 3262,
      "cirurg": 3263,
      "##mitir": 3264,
      "determinacao": 3265,
      "sozinho": 3266,
      "haviam": 3267,
      "maravilhoso": 3268,
      "biologia": 3269,
      "conexao": 3270,
      "saudavel": 3271,
      "mostrando": 3272,
      "bacterias": 3273,
      "diminu": 3274,
      "porcento": 3275,
      "clinica": 3276,
      "revolucao": 3277,
      "cancer": 3278,
      "obviamente": 3279,
      "22": 3280,
      "[\"": 3281,
      "atr": 3282,
      "aula": 3283,
      "bro": 3284,
      "civil": 3285,
      "dao": 3286,
      "ger": 3287,
      "jer": 3288,
      "ken": 3289,
      "migu": 3290,
      "ner": 3291,
      "raca": 3292,
      "sho": 3293,
      "tv": 3294,
      "war": 3295,
      "##dis": 3296,
      "##den": 3297,
      "##mao": 3298,
      "##mal": 3299,
      "##ff": 3300,
      "##fas": 3301,
      "##eo": 3302,
      "##bu": 3303,
      "##ld": 3304,
      "##lho": 3305,
      "##junto": 3306,
      "##isto": 3307,
      "queb": 3308,
      "come": 3309,
      "comem": 3310,
      "comentar": 3311,
      "##inado": 3312,
      "##inaria": 3313,
      "##ical": 3314,
      "##elera": 3315,
      "empo": 3316,
      "##ocos": 3317,
      "pobres": 3318,
      "alex": 3319,
      "proto": 3320,
      "propor": 3321,
      "diria": 3322,
      "entra": 3323,
      "redes": 3324,
      "##cados": 3325,
      "estra": 3326,
      "estudar": 3327,
      "fogo": 3328,
      "##ust": 3329,
      "env": 3330,
      "enca": 3331,
      "sermos": 3332,
      "serie": 3333,
      "perder": 3334,
      "##tur": 3335,
      "moder": 3336,
      "acao": 3337,
      "aceita": 3338,
      "termo": 3339,
      "trad": 3340,
      "criou": 3341,
      "##idores": 3342,
      "priv": 3343,
      "##itam": 3344,
      "##eceu": 3345,
      "##eceram": 3346,
      "lago": 3347,
      "pegou": 3348,
      "criado": 3349,
      "##eriam": 3350,
      "estejam": 3351,
      "##dura": 3352,
      "vieram": 3353,
      "diferencas": 3354,
      "verdadeiro": 3355,
      "interior": 3356,
      "recu": 3357,
      "chamou": 3358,
      "##cionar": 3359,
      "sentimos": 3360,
      "pouquinho": 3361,
      "claramente": 3362,
      "nasceu": 3363,
      "pude": 3364,
      "##ologia": 3365,
      "ajus": 3366,
      "process": 3367,
      "deixou": 3368,
      "mostrou": 3369,
      "##low": 3370,
      "peso": 3371,
      "conhecemos": 3372,
      "gosta": 3373,
      "descober": 3374,
      "planetas": 3375,
      "##ington": 3376,
      "vozes": 3377,
      "relig": 3378,
      "existencia": 3379,
      "invent": 3380,
      "desenvolv": 3381,
      "197": 3382,
      "subs": 3383,
      "neve": 3384,
      "genero": 3385,
      "plantas": 3386,
      "inicia": 3387,
      "desafia": 3388,
      "razoes": 3389,
      "adoro": 3390,
      "adoles": 3391,
      "bono": 3392,
      "viagem": 3393,
      "viajar": 3394,
      "facilmente": 3395,
      "estranha": 3396,
      "recons": 3397,
      "daqui": 3398,
      "daquela": 3399,
      "otim": 3400,
      "otima": 3401,
      "olhou": 3402,
      "atual": 3403,
      "fundamentais": 3404,
      "animal": 3405,
      "gastar": 3406,
      "intera": 3407,
      "materiais": 3408,
      "pudessemos": 3409,
      "garoto": 3410,
      "gay": 3411,
      "multipo": 3412,
      "roupas": 3413,
      "janela": 3414,
      "possibilidades": 3415,
      "comportamento": 3416,
      "##penho": 3417,
      "alcancar": 3418,
      "##deiras": 3419,
      "estudos": 3420,
      "barato": 3421,
      "linguagem": 3422,
      "individuos": 3423,
      "professores": 3424,
      "toneladas": 3425,
      "vacinas": 3426,
      "engenheiros": 3427,
      "azul": 3428,
      "execu": 3429,
      "frequentemente": 3430,
      "planej": 3431,
      "mundos": 3432,
      "drama": 3433,
      "democra": 3434,
      "biblio": 3435,
      "demonstra": 3436,
      "detalhes": 3437,
      "imediatamente": 3438,
      "world": 3439,
      "resolucao": 3440,
      "miguel": 3441,
      "adolesc": 3442,
      "multipotencia": 3443,
      "21": 3444,
      "400": 3445,
      "ara": 3446,
      "ade": 3447,
      "eis": 3448,
      "fol": 3449,
      "feira": 3450,
      "fru": 3451,
      "feitos": 3452,
      "iceb": 3453,
      "licao": 3454,
      "liqu": 3455,
      "sc": 3456,
      "sac": 3457,
      "vas": 3458,
      "varia": 3459,
      "wash": 3460,
      "##ncia": 3461,
      "##gado": 3462,
      "##gada": 3463,
      "##acoes": 3464,
      "##ora": 3465,
      "##sh": 3466,
      "##esa": 3467,
      "detec": 3468,
      "cores": 3469,
      "##emun": 3470,
      "##iado": 3471,
      "##tacao": 3472,
      "parado": 3473,
      "elem": 3474,
      "elim": 3475,
      "domin": 3476,
      "meia": 3477,
      "meto": 3478,
      "conduz": 3479,
      "solar": 3480,
      "aleg": 3481,
      "alvo": 3482,
      "proust": 3483,
      "##ace": 3484,
      "entendo": 3485,
      "inver": 3486,
      "expec": 3487,
      "estima": 3488,
      "##istao": 3489,
      "##usao": 3490,
      "enf": 3491,
      "caval": 3492,
      "person": 3493,
      "satis": 3494,
      "moga": 3495,
      "motor": 3496,
      "##etar": 3497,
      "##etaria": 3498,
      "disto": 3499,
      "##veram": 3500,
      "luzes": 3501,
      "##uros": 3502,
      "escolas": 3503,
      "qualidade": 3504,
      "escane": 3505,
      "campos": 3506,
      "correr": 3507,
      "seguida": 3508,
      "medica": 3509,
      "japao": 3510,
      "tornam": 3511,
      "tornando": 3512,
      "##ancos": 3513,
      "##prim": 3514,
      "plac": 3515,
      "possamos": 3516,
      "##ariamos": 3517,
      "atletas": 3518,
      "admitir": 3519,
      "usu": 3520,
      "proprias": 3521,
      "transpar": 3522,
      "afir": 3523,
      "reflet": 3524,
      "construimos": 3525,
      "rodas": 3526,
      "boas": 3527,
      "digamos": 3528,
      "caras": 3529,
      "serao": 3530,
      "cresce": 3531,
      "opcao": 3532,
      "trib": 3533,
      "particulas": 3534,
      "acabou": 3535,
      "tiveram": 3536,
      "politicas": 3537,
      "esperan": 3538,
      "inicial": 3539,
      "diversas": 3540,
      "vivendo": 3541,
      "crescimento": 3542,
      "question": 3543,
      "repro": 3544,
      "efica": 3545,
      "servico": 3546,
      "magica": 3547,
      "magnet": 3548,
      "alemanha": 3549,
      "discu": 3550,
      "esperar": 3551,
      "universo": 3552,
      "proteger": 3553,
      "oferecer": 3554,
      "colega": 3555,
      "sinais": 3556,
      "profundamente": 3557,
      "decisao": 3558,
      "companhias": 3559,
      "excel": 3560,
      "franc": 3561,
      "estudantes": 3562,
      "desconfor": 3563,
      "times": 3564,
      "##than": 3565,
      "sobreviver": 3566,
      "aberto": 3567,
      "testes": 3568,
      "testemun": 3569,
      "contex": 3570,
      "atingir": 3571,
      "espacial": 3572,
      "tocar": 3573,
      "estivesse": 3574,
      "sensores": 3575,
      "##itorio": 3576,
      "curiosidade": 3577,
      "empreendedor": 3578,
      "agricultura": 3579,
      "jardim": 3580,
      "brilhante": 3581,
      "docum": 3582,
      "habita": 3583,
      "breve": 3584,
      "impressionante": 3585,
      "perspectiva": 3586,
      "creio": 3587,
      "departamento": 3588,
      "##discio": 3589,
      "iceberg": 3590,
      "washington": 3591,
      "expecta": 3592,
      "mogadiscio": 3593,
      "ato": 3594,
      "blo": 3595,
      "branca": 3596,
      "boca": 3597,
      "ce": 3598,
      "cen": 3599,
      "et": 3600,
      "giga": 3601,
      "iso": 3602,
      "ka": 3603,
      "log": 3604,
      "pis": 3605,
      "sl": 3606,
      "velho": 3607,
      "zona": 3608,
      "##iel": 3609,
      "##ant": 3610,
      "##oa": 3611,
      "##sando": 3612,
      "##ciar": 3613,
      "##bit": 3614,
      "##vando": 3615,
      "##assem": 3616,
      "##enso": 3617,
      "##inam": 3618,
      "##iclo": 3619,
      "##alidade": 3620,
      "##ron": 3621,
      "##deu": 3622,
      "##ocar": 3623,
      "##eias": 3624,
      "##eitamente": 3625,
      "dob": 3626,
      "##ilar": 3627,
      "nota": 3628,
      "conn": 3629,
      "cong": 3630,
      "soar": 3631,
      "alter": 3632,
      "protes": 3633,
      "##sey": 3634,
      "inco": 3635,
      "superar": 3636,
      "##mosso": 3637,
      "expos": 3638,
      "##irem": 3639,
      "anun": 3640,
      "cadeira": 3641,
      "##izo": 3642,
      "##izados": 3643,
      "mover": 3644,
      "monta": 3645,
      "acresc": 3646,
      "term": 3647,
      "##etes": 3648,
      "##etros": 3649,
      "intro": 3650,
      "##iosa": 3651,
      "resid": 3652,
      "primeiras": 3653,
      "abunda": 3654,
      "cama": 3655,
      "##duras": 3656,
      "nesses": 3657,
      "##elhas": 3658,
      "fundos": 3659,
      "##ruc": 3660,
      "receita": 3661,
      "histor": 3662,
      "carros": 3663,
      "irmao": 3664,
      "marcas": 3665,
      "marsh": 3666,
      "john": 3667,
      "facam": 3668,
      "##essemos": 3669,
      "inclus": 3670,
      "adm": 3671,
      "adiante": 3672,
      "fizer": 3673,
      "comunicar": 3674,
      "veja": 3675,
      "deixem": 3676,
      "olhamos": 3677,
      "pressao": 3678,
      "?\",": 3679,
      "afas": 3680,
      "concent": 3681,
      "concurso": 3682,
      "rot": 3683,
      "bomba": 3684,
      "chegando": 3685,
      "lond": 3686,
      "longa": 3687,
      "limpa": 3688,
      "desenvolver": 3689,
      "tanta": 3690,
      "erro": 3691,
      "politico": 3692,
      "avan": 3693,
      "interessantes": 3694,
      "##itivos": 3695,
      "antiga": 3696,
      "parecem": 3697,
      "crescer": 3698,
      "repet": 3699,
      "apoia": 3700,
      "fisicos": 3701,
      "sexta": 3702,
      "feminino": 3703,
      "terrivel": 3704,
      "circulo": 3705,
      "frase": 3706,
      "honra": 3707,
      "convenc": 3708,
      "inteligente": 3709,
      "assistindo": 3710,
      "passando": 3711,
      "incriveis": 3712,
      "organizacao": 3713,
      "ocorr": 3714,
      "perfeito": 3715,
      "perfeitamente": 3716,
      "vitoria": 3717,
      "vitima": 3718,
      "jornada": 3719,
      "modelos": 3720,
      "corredor": 3721,
      "permitir": 3722,
      "aplicativo": 3723,
      "coreanos": 3724,
      "colabo": 3725,
      "entendemos": 3726,
      "francis": 3727,
      "devido": 3728,
      "resultados": 3729,
      "roupa": 3730,
      "coragem": 3731,
      "paginas": 3732,
      "pedacos": 3733,
      "chave": 3734,
      "fantastico": 3735,
      "##cepcao": 3736,
      "fluxo": 3737,
      "sofre": 3738,
      "fecha": 3739,
      "ingles": 3740,
      "acordo": 3741,
      "esforco": 3742,
      "vizinhos": 3743,
      "macaco": 3744,
      "parede": 3745,
      "desempenho": 3746,
      "maluca": 3747,
      "atividades": 3748,
      "selva": 3749,
      "consequencias": 3750,
      "mensagem": 3751,
      "cromosso": 3752,
      "kevin": 3753,
      "cultivar": 3754,
      "milagre": 3755,
      "garant": 3756,
      "buraco": 3757,
      "fasc": 3758,
      "fronteira": 3759,
      "ameac": 3760,
      "concreto": 3761,
      "maximo": 3762,
      "adversidade": 3763,
      "matema": 3764,
      "naveg": 3765,
      "propens": 3766,
      "little": 3767,
      "segredo": 3768,
      "plastico": 3769,
      "##mallow": 3770,
      "adequ": 3771,
      "empreendedorismo": 3772,
      "marshmallow": 3773,
      "aid": 3774,
      "cura": 3775,
      "dna": 3776,
      "fase": 3777,
      "feita": 3778,
      "foco": 3779,
      "feitas": 3780,
      "gal": 3781,
      "lem": 3782,
      "lam": 3783,
      "lida": 3784,
      "mis": 3785,
      "mental": 3786,
      "missao": 3787,
      "nar": 3788,
      "ocas": 3789,
      "oculos": 3790,
      "peito": 3791,
      "rid": 3792,
      "reno": 3793,
      "sra": 3794,
      "sta": 3795,
      "vul": 3796,
      "##int": 3797,
      "##iei": 3798,
      "##nidade": 3799,
      "##uais": 3800,
      "##di": 3801,
      "##cial": 3802,
      "##craf": 3803,
      "##pur": 3804,
      "##vas": 3805,
      "##lado": 3806,
      "##xer": 3807,
      "deco": 3808,
      "##armos": 3809,
      "##orre": 3810,
      "##tais": 3811,
      "umas": 3812,
      "##anistao": 3813,
      "##sou": 3814,
      "##ecido": 3815,
      "mata": 3816,
      "matar": 3817,
      "##ival": 3818,
      "##ilib": 3819,
      "estara": 3820,
      "conosco": 3821,
      "conjunto": 3822,
      "nathan": 3823,
      "##mant": 3824,
      "reacao": 3825,
      "suj": 3826,
      "desf": 3827,
      "deser": 3828,
      "topo": 3829,
      "exce": 3830,
      "estive": 3831,
      "fontes": 3832,
      "##igas": 3833,
      "enfer": 3834,
      "caix": 3835,
      "##ramento": 3836,
      "sapa": 3837,
      "acorda": 3838,
      "teriam": 3839,
      "part": 3840,
      "espor": 3841,
      "espir": 3842,
      "querer": 3843,
      "amamos": 3844,
      "amira": 3845,
      "fortes": 3846,
      "##eganistao": 3847,
      "##itan": 3848,
      "##itando": 3849,
      "##rasse": 3850,
      "##ioso": 3851,
      "compos": 3852,
      "resist": 3853,
      "sabendo": 3854,
      "falou": 3855,
      "##tivel": 3856,
      "peguei": 3857,
      "paul": 3858,
      "patr": 3859,
      "prima": 3860,
      "color": 3861,
      "duro": 3862,
      "casar": 3863,
      "##haria": 3864,
      "imagina": 3865,
      "sentia": 3866,
      "sentimento": 3867,
      "sentimentos": 3868,
      "classe": 3869,
      "perguntou": 3870,
      "##lex": 3871,
      "mark": 3872,
      "ficamos": 3873,
      "conseguia": 3874,
      "especies": 3875,
      "##talha": 3876,
      "jogador": 3877,
      "deixe": 3878,
      "pression": 3879,
      "usina": 3880,
      "conheco": 3881,
      "propriedade": 3882,
      "transicao": 3883,
      "lembra": 3884,
      "afeganistao": 3885,
      "concor": 3886,
      "desenhar": 3887,
      "completa": 3888,
      "ordem": 3889,
      "refer": 3890,
      "grau": 3891,
      "##ings": 3892,
      "ouvido": 3893,
      "ouvimos": 3894,
      "ouviram": 3895,
      "digitais": 3896,
      "brinc": 3897,
      "ambientes": 3898,
      "acaba": 3899,
      "cabecas": 3900,
      "valores": 3901,
      "equilib": 3902,
      "rua": 3903,
      "ruins": 3904,
      "epica": 3905,
      "epif": 3906,
      "acabei": 3907,
      "respostas": 3908,
      "aviao": 3909,
      "curva": 3910,
      "diversidade": 3911,
      "aprendizado": 3912,
      "##endeu": 3913,
      "apol": 3914,
      "evitar": 3915,
      "mantem": 3916,
      "estranhas": 3917,
      "favorito": 3918,
      "terriveis": 3919,
      "felizmente": 3920,
      "fracas": 3921,
      "maquinas": 3922,
      "senho": 3923,
      "ensino": 3924,
      "controlar": 3925,
      "inteligentes": 3926,
      "usada": 3927,
      "segundos": 3928,
      "envolver": 3929,
      "discus": 3930,
      "##ibilidade": 3931,
      "barco": 3932,
      "canais": 3933,
      "principalmente": 3934,
      "proteinas": 3935,
      "contato": 3936,
      "costas": 3937,
      "observar": 3938,
      "deficientes": 3939,
      "garot": 3940,
      "sinal": 3941,
      "combus": 3942,
      "blocos": 3943,
      "quantica": 3944,
      "exploracao": 3945,
      "alien": 3946,
      "formar": 3947,
      "condicao": 3948,
      "ataque": 3949,
      "urg": 3950,
      "enormes": 3951,
      "negocios": 3952,
      "sofrimento": 3953,
      "individuo": 3954,
      "julgar": 3955,
      "misterios": 3956,
      "2011": 3957,
      "apaixonar": 3958,
      "escrito": 3959,
      "possui": 3960,
      "romance": 3961,
      "necessidades": 3962,
      "taxa": 3963,
      "ilum": 3964,
      "disponiveis": 3965,
      "compromet": 3966,
      "assusta": 3967,
      "egip": 3968,
      "texto": 3969,
      "morreu": 3970,
      "mergulh": 3971,
      "descrever": 3972,
      "sustentavel": 3973,
      "voluntar": 3974,
      "conflito": 3975,
      "audiencia": 3976,
      "encora": 3977,
      "agrade": 3978,
      "movimentos": 3979,
      "vergonha": 3980,
      "surpresa": 3981,
      "##sexual": 3982,
      "jersey": 3983,
      "warcraf": 3984,
      "religiao": 3985,
      "bonobos": 3986,
      "cenario": 3987,
      "matematica": 3988,
      "ridic": 3989,
      "exceto": 3990,
      "warcraft": 3991,
      "27": 3992,
      "agar": 3993,
      "bu": 3994,
      "banh": 3995,
      "dro": 3996,
      "eco": 3997,
      "fenom": 3998,
      "gele": 3999,
      "hiv": 4000,
      "holog": 4001,
      "li": 4002,
      "leste": 4003,
      "mentes": 4004,
      "oz": 4005,
      "odia": 4006,
      "oleo": 4007,
      "pun": 4008,
      "pilo": 4009,
      "rus": 4010,
      "rig": 4011,
      "sr": 4012,
      "stu": 4013,
      "tw": 4014,
      "tais": 4015,
      "vid": 4016,
      "vend": 4017,
      "web": 4018,
      "zamb": 4019,
      "##iores": 4020,
      "##inta": 4021,
      "##gir": 4022,
      "##utor": 4023,
      "##ay": 4024,
      "##mer": 4025,
      "##ri": 4026,
      "##ror": 4027,
      "##vera": 4028,
      "##vores": 4029,
      "##jus": 4030,
      "##ws": 4031,
      "##woo": 4032,
      "##essa": 4033,
      "##ntemente": 4034,
      "dep": 4035,
      "devo": 4036,
      "cober": 4037,
      "##entado": 4038,
      "##endas": 4039,
      "##dado": 4040,
      "##ans": 4041,
      "secre": 4042,
      "##soes": 4043,
      "##ime": 4044,
      "##ecion": 4045,
      "##ecimento": 4046,
      "##eios": 4047,
      "mapa": 4048,
      "##ivas": 4049,
      "aspec": 4050,
      "portas": 4051,
      "navio": 4052,
      "promo": 4053,
      "pronto": 4054,
      "##ach": 4055,
      "dito": 4056,
      "ine": 4057,
      "inoc": 4058,
      "suger": 4059,
      "temp": 4060,
      "tempera": 4061,
      "descul": 4062,
      "descar": 4063,
      "desespera": 4064,
      "fator": 4065,
      "##enciar": 4066,
      "ans": 4067,
      "##und": 4068,
      "aper": 4069,
      "cafe": 4070,
      "cadeiras": 4071,
      "serio": 4072,
      "seremos": 4073,
      "perc": 4074,
      "perda": 4075,
      "##izes": 4076,
      "chu": 4077,
      "sobrecar": 4078,
      "acas": 4079,
      "achar": 4080,
      "acelera": 4081,
      "terres": 4082,
      "trag": 4083,
      "tratar": 4084,
      "pref": 4085,
      "preda": 4086,
      "##ides": 4087,
      "privil": 4088,
      "##itado": 4089,
      "arre": 4090,
      "arran": 4091,
      "arvores": 4092,
      "certas": 4093,
      "falei": 4094,
      "falha": 4095,
      "precisar": 4096,
      "coluna": 4097,
      "levamos": 4098,
      "escal": 4099,
      "escuro": 4100,
      "camp": 4101,
      "camelo": 4102,
      "corres": 4103,
      "meninos": 4104,
      "ray": 4105,
      "raiva": 4106,
      "##med": 4107,
      "##tero": 4108,
      "jantar": 4109,
      "card": 4110,
      "##ificados": 4111,
      "perguntando": 4112,
      "##ances": 4113,
      "lojas": 4114,
      "especifica": 4115,
      "direto": 4116,
      "direita": 4117,
      "bate": 4118,
      "procura": 4119,
      "incent": 4120,
      "quadro": 4121,
      "preser": 4122,
      "conhecem": 4123,
      "orient": 4124,
      "funcionam": 4125,
      "construido": 4126,
      "graca": 4127,
      "romant": 4128,
      "ouvindo": 4129,
      "bril": 4130,
      "academ": 4131,
      "culpa": 4132,
      "cerebral": 4133,
      "limp": 4134,
      "##pear": 4135,
      "tantas": 4136,
      "tril": 4137,
      "aparec": 4138,
      "acabado": 4139,
      "aval": 4140,
      "merec": 4141,
      "anterior": 4142,
      "cientista": 4143,
      "vivem": 4144,
      "parecido": 4145,
      "apont": 4146,
      "fossem": 4147,
      "idio": 4148,
      "efet": 4149,
      "calor": 4150,
      "trabalhamos": 4151,
      "evento": 4152,
      "estranhos": 4153,
      "continua": 4154,
      "imped": 4155,
      "assistencia": 4156,
      "abriu": 4157,
      "autistas": 4158,
      "produzem": 4159,
      "canada": 4160,
      "equipes": 4161,
      "integ": 4162,
      "distribu": 4163,
      "riscos": 4164,
      "engen": 4165,
      "##icional": 4166,
      "individual": 4167,
      "explorar": 4168,
      "bola": 4169,
      "compreend": 4170,
      "compreender": 4171,
      "seguintes": 4172,
      "complexo": 4173,
      "necessaria": 4174,
      "ataques": 4175,
      "montanha": 4176,
      "faremos": 4177,
      "considerar": 4178,
      "inspiracao": 4179,
      "conteudo": 4180,
      "encara": 4181,
      "tarefas": 4182,
      "dispositivo": 4183,
      "relacoes": 4184,
      "divertido": 4185,
      "aproximadamente": 4186,
      "holly": 4187,
      "conexoes": 4188,
      "estrelas": 4189,
      "saudaveis": 4190,
      "taxas": 4191,
      "mecanica": 4192,
      "corrida": 4193,
      "irmaos": 4194,
      "vestido": 4195,
      "egito": 4196,
      "verdadeiramente": 4197,
      "profissionais": 4198,
      "industria": 4199,
      "embaix": 4200,
      "engracado": 4201,
      "policia": 4202,
      "responsabilidade": 4203,
      "mentira": 4204,
      "restaura": 4205,
      "beneficiar": 4206,
      "rosto": 4207,
      "famoso": 4208,
      "abordagem": 4209,
      "entropica": 4210,
      "premio": 4211,
      "atribu": 4212,
      "processamento": 4213,
      "reconstru": 4214,
      "democracia": 4215,
      "metodo": 4216,
      "inverno": 4217,
      "eficaz": 4218,
      "##bits": 4219,
      "residu": 4220,
      "londres": 4221,
      "littlebits": 4222,
      "enferm": 4223,
      "epifania": 4224,
      "geleia": 4225,
      "temperatura": 4226,
      "privileg": 4227,
      "hollywoo": 4228,
      "?”": 4229,
      "amo": 4230,
      "ater": 4231,
      "aves": 4232,
      "bala": 4233,
      "ceu": 4234,
      "dano": 4235,
      "lide": 4236,
      "liga": 4237,
      "lanca": 4238,
      "mens": 4239,
      "od": 4240,
      "rele": 4241,
      "rosa": 4242,
      "sw": 4243,
      "wal": 4244,
      "you": 4245,
      "##ipa": 4246,
      "##nes": 4247,
      "##nera": 4248,
      "##nancia": 4249,
      "##gacao": 4250,
      "##uras": 4251,
      "##tidao": 4252,
      "##cra": 4253,
      "##camos": 4254,
      "##rif": 4255,
      "##ey": 4256,
      "##bou": 4257,
      "##vent": 4258,
      "##yan": 4259,
      "##xnet": 4260,
      "##war": 4261,
      "##osas": 4262,
      "quil": 4263,
      "demos": 4264,
      "depres": 4265,
      "coo": 4266,
      "quenia": 4267,
      "##ore": 4268,
      "##orrer": 4269,
      "##iacao": 4270,
      "comba": 4271,
      "##icando": 4272,
      "##icou": 4273,
      "##alto": 4274,
      "##roleo": 4275,
      "##aras": 4276,
      "empur": 4277,
      "##ecao": 4278,
      "mail": 4279,
      "maxim": 4280,
      "##ill": 4281,
      "estabel": 4282,
      "conqu": 4283,
      "sons": 4284,
      "solo": 4285,
      "sobr": 4286,
      "alco": 4287,
      "altamente": 4288,
      "##sados": 4289,
      "diaria": 4290,
      "reto": 4291,
      "reino": 4292,
      "injus": 4293,
      "desas": 4294,
      "desigu": 4295,
      "##itei": 4296,
      "##vadores": 4297,
      "estim": 4298,
      "estres": 4299,
      "andro": 4300,
      "encar": 4301,
      "enxer": 4302,
      "cau": 4303,
      "cant": 4304,
      "pertur": 4305,
      "##umb": 4306,
      "saindo": 4307,
      "char": 4308,
      "chao": 4309,
      "chris": 4310,
      "movendo": 4311,
      "acos": 4312,
      "##etos": 4313,
      "##idem": 4314,
      "contas": 4315,
      "contou": 4316,
      "##itada": 4317,
      "obter": 4318,
      "obvio": 4319,
      "semelha": 4320,
      "restr": 4321,
      "consta": 4322,
      "cert": 4323,
      "certos": 4324,
      "falo": 4325,
      "##tivamente": 4326,
      "lados": 4327,
      "luta": 4328,
      "lutar": 4329,
      "lutando": 4330,
      "##inante": 4331,
      "ondas": 4332,
      "##iba": 4333,
      "caminha": 4334,
      "rapa": 4335,
      "medir": 4336,
      "imagine": 4337,
      "ideologia": 4338,
      "pouca": 4339,
      "cardia": 4340,
      "clientes": 4341,
      "##ificado": 4342,
      "confusao": 4343,
      "marido": 4344,
      "pense": 4345,
      "ajudo": 4346,
      "diretor": 4347,
      "encontrado": 4348,
      "bair": 4349,
      "mortos": 4350,
      "instru": 4351,
      "comuns": 4352,
      "olhei": 4353,
      "conhecido": 4354,
      "lembram": 4355,
      "lembrem": 4356,
      "afinal": 4357,
      "conclusao": 4358,
      "centros": 4359,
      "centrif": 4360,
      "planos": 4361,
      "influ": 4362,
      "infant": 4363,
      "##vard": 4364,
      "fotons": 4365,
      "produto": 4366,
      "chega": 4367,
      "ambient": 4368,
      "agress": 4369,
      "basico": 4370,
      "locutor": 4371,
      "voltando": 4372,
      "govern": 4373,
      "escolhemos": 4374,
      "tentamos": 4375,
      "inventar": 4376,
      "invencao": 4377,
      "limpar": 4378,
      "chef": 4379,
      "surto": 4380,
      "negro": 4381,
      "subir": 4382,
      "apartamentos": 4383,
      "tivessem": 4384,
      "escrevendo": 4385,
      "escreveu": 4386,
      "ajudando": 4387,
      "avent": 4388,
      "gostariam": 4389,
      "mercados": 4390,
      "##enderam": 4391,
      "cuja": 4392,
      "estrang": 4393,
      "assistir": 4394,
      "popular": 4395,
      "aprov": 4396,
      "esperamos": 4397,
      "organizacoes": 4398,
      "principio": 4399,
      "baseado": 4400,
      "baseados": 4401,
      "oferece": 4402,
      "relacionamentos": 4403,
      "minuto": 4404,
      "completo": 4405,
      "buscar": 4406,
      "permitiu": 4407,
      "garota": 4408,
      "levando": 4409,
      "profundo": 4410,
      "brinca": 4411,
      "situacoes": 4412,
      "blog": 4413,
      "black": 4414,
      "acreditava": 4415,
      "acreditamos": 4416,
      "determ": 4417,
      "telefone": 4418,
      "estudante": 4419,
      "ligar": 4420,
      "condicoes": 4421,
      "complexas": 4422,
      "pagina": 4423,
      "reconhecimento": 4424,
      "derro": 4425,
      "designers": 4426,
      "extraordinaria": 4427,
      "pint": 4428,
      "piores": 4429,
      "tony": 4430,
      "havera": 4431,
      "justica": 4432,
      "terceiro": 4433,
      "possuem": 4434,
      "adaptar": 4435,
      "essencialmente": 4436,
      "holmes": 4437,
      "##baroes": 4438,
      "petroleo": 4439,
      "esforcos": 4440,
      "confortavel": 4441,
      "complicado": 4442,
      "apresentacao": 4443,
      "floresta": 4444,
      "executa": 4445,
      "paredes": 4446,
      "disponivel": 4447,
      "empreendedores": 4448,
      "lideres": 4449,
      "destruicao": 4450,
      "noticia": 4451,
      "noticias": 4452,
      "eletrica": 4453,
      "liberais": 4454,
      "origem": 4455,
      "embaixo": 4456,
      "andando": 4457,
      "vermelho": 4458,
      "neurociencia": 4459,
      "tubaroes": 4460,
      "amostras": 4461,
      "retorn": 4462,
      "sucedido": 4463,
      "costumava": 4464,
      "entrevista": 4465,
      "nerv": 4466,
      "transparencia": 4467,
      "bloque": 4468,
      "slide": 4469,
      "connor": 4470,
      "francisco": 4471,
      "aids": 4472,
      "lembre": 4473,
      "vulnera": 4474,
      "nathaniel": 4475,
      "apollo": 4476,
      "garotinha": 4477,
      "alienig": 4478,
      "voluntarios": 4479,
      "stuxnet": 4480,
      "correspon": 4481,
      "hollywood": 4482,
      "desigual": 4483,
      "centrifu": 4484,
      "600": 4485,
      "aero": 4486,
      "bg": 4487,
      "bos": 4488,
      "bio": 4489,
      "bur": 4490,
      "bru": 4491,
      "cem": 4492,
      "cele": 4493,
      "dicion": 4494,
      "dancar": 4495,
      "dinam": 4496,
      "druc": 4497,
      "ei": 4498,
      "figu": 4499,
      "gado": 4500,
      "gamb": 4501,
      "ganha": 4502,
      "her": 4503,
      "hen": 4504,
      "ig": 4505,
      "it": 4506,
      "jas": 4507,
      "jack": 4508,
      "les": 4509,
      "mit": 4510,
      "niveis": 4511,
      "ph": 4512,
      "ric": 4513,
      "sente": 4514,
      "sha": 4515,
      "saram": 4516,
      "terao": 4517,
      "titan": 4518,
      "vib": 4519,
      "##ioc": 4520,
      "##nios": 4521,
      "##gs": 4522,
      "##gio": 4523,
      "##up": 4524,
      "##ualmente": 4525,
      "##ail": 4526,
      "##ten": 4527,
      "##teca": 4528,
      "##fos": 4529,
      "##fit": 4530,
      "##fun": 4531,
      "##face": 4532,
      "##cias": 4533,
      "##rio": 4534,
      "##pso": 4535,
      "##pho": 4536,
      "##bi": 4537,
      "##bado": 4538,
      "##vou": 4539,
      "##lamento": 4540,
      "##kin": 4541,
      "##zen": 4542,
      "##jta": 4543,
      "##jol": 4544,
      "##wn": 4545,
      "##wy": 4546,
      "##win": 4547,
      "##erta": 4548,
      "dedos": 4549,
      "deram": 4550,
      "depend": 4551,
      "coz": 4552,
      "##isa": 4553,
      "queda": 4554,
      "quente": 4555,
      "##entam": 4556,
      "##entamos": 4557,
      "##entalmente": 4558,
      "##tanto": 4559,
      "##tantes": 4560,
      "##taveis": 4561,
      "##enio": 4562,
      "comedia": 4563,
      "##iculos": 4564,
      "##rom": 4565,
      "seat": 4566,
      "sejamos": 4567,
      "##aran": 4568,
      "##del": 4569,
      "##toes": 4570,
      "empa": 4571,
      "##ocado": 4572,
      "mac": 4573,
      "asp": 4574,
      "asia": 4575,
      "asilo": 4576,
      "##teia": 4577,
      "##gus": 4578,
      "porem": 4579,
      "##ile": 4580,
      "notas": 4581,
      "estatu": 4582,
      "mex": 4583,
      "metro": 4584,
      "alo": 4585,
      "alte": 4586,
      "alma": 4587,
      "altura": 4588,
      "entus": 4589,
      "reais": 4590,
      "retar": 4591,
      "requer": 4592,
      "inca": 4593,
      "desper": 4594,
      "destes": 4595,
      "##ity": 4596,
      "##itao": 4597,
      "topico": 4598,
      "##ressao": 4599,
      "expon": 4600,
      "excep": 4601,
      "fonte": 4602,
      "##igma": 4603,
      "apla": 4604,
      "serra": 4605,
      "saida": 4606,
      "##tube": 4607,
      "moda": 4608,
      "motivo": 4609,
      "##eting": 4610,
      "diss": 4611,
      "preco": 4612,
      "previs": 4613,
      "esposa": 4614,
      "assass": 4615,
      "eramos": 4616,
      "amiga": 4617,
      "prisao": 4618,
      "obje": 4619,
      "##iosas": 4620,
      "argu": 4621,
      "armas": 4622,
      "artes": 4623,
      "sabor": 4624,
      "constitu": 4625,
      "imas": 4626,
      "imprim": 4627,
      "poderao": 4628,
      "tipica": 4629,
      "tijol": 4630,
      "##inadas": 4631,
      "pagar": 4632,
      "passos": 4633,
      "filhas": 4634,
      "camadas": 4635,
      "campe": 4636,
      "camelos": 4637,
      "corte": 4638,
      "cortar": 4639,
      "nestes": 4640,
      "interpre": 4641,
      "casas": 4642,
      "##hard": 4643,
      "recentes": 4644,
      "chamam": 4645,
      "##cionais": 4646,
      "medicacao": 4647,
      "##iario": 4648,
      "sentar": 4649,
      "sentada": 4650,
      "torne": 4651,
      "carta": 4652,
      "carga": 4653,
      "cliente": 4654,
      "entrei": 4655,
      "entretanto": 4656,
      "perguntam": 4657,
      "##leta": 4658,
      "vaz": 4659,
      "confiar": 4660,
      "##ancton": 4661,
      "ficando": 4662,
      "##ticamente": 4663,
      "especifico": 4664,
      "##embro": 4665,
      "juvent": 4666,
      "##ebo": 4667,
      "##ebol": 4668,
      "##eboo": 4669,
      "encontro": 4670,
      "batalha": 4671,
      "morr": 4672,
      "faceis": 4673,
      "faceboo": 4674,
      "tranqu": 4675,
      "instante": 4676,
      "adv": 4677,
      "experimento": 4678,
      "soub": 4679,
      "usaram": 4680,
      "nutr": 4681,
      "gostamos": 4682,
      "conclu": 4683,
      "desenho": 4684,
      "sociedades": 4685,
      "construindo": 4686,
      "darwin": 4687,
      "##ientemente": 4688,
      "digam": 4689,
      "dignidade": 4690,
      "capitao": 4691,
      "gerar": 4692,
      "geracoes": 4693,
      "culturas": 4694,
      "percebem": 4695,
      "percebemos": 4696,
      "invis": 4697,
      "limites": 4698,
      "consciente": 4699,
      "confiabilidade": 4700,
      "equacao": 4701,
      "equival": 4702,
      "196": 4703,
      "salto": 4704,
      "sinte": 4705,
      "##itarios": 4706,
      "objetivos": 4707,
      "genes": 4708,
      "plateia": 4709,
      "malala": 4710,
      "especialista": 4711,
      "especialistas": 4712,
      "pedi": 4713,
      "descobrimos": 4714,
      "##itivamente": 4715,
      "antigo": 4716,
      "pareciam": 4717,
      "alimenta": 4718,
      "adoramos": 4719,
      "bonita": 4720,
      "evang": 4721,
      "evidencia": 4722,
      "acontecem": 4723,
      "ficava": 4724,
      "economica": 4725,
      "economico": 4726,
      "honduras": 4727,
      "passam": 4728,
      "quisesse": 4729,
      "barul": 4730,
      "recebe": 4731,
      "carrega": 4732,
      "pensavam": 4733,
      "custa": 4734,
      "pudessem": 4735,
      "observamos": 4736,
      "legado": 4737,
      "descr": 4738,
      "decidimos": 4739,
      "combinacao": 4740,
      "bloco": 4741,
      "esquecer": 4742,
      "acreditam": 4743,
      "dezenas": 4744,
      "prazer": 4745,
      "micros": 4746,
      "ligam": 4747,
      "janeiro": 4748,
      "janelas": 4749,
      "preocupar": 4750,
      "armad": 4751,
      "armazen": 4752,
      "minus": 4753,
      "impressao": 4754,
      "reconhecer": 4755,
      "tomate": 4756,
      "adulta": 4757,
      "adulto": 4758,
      "utilizando": 4759,
      "perdi": 4760,
      "##logia": 4761,
      "enfrentar": 4762,
      "enfrenta": 4763,
      "espacos": 4764,
      "quisermos": 4765,
      "procrastinacao": 4766,
      "procrastinadores": 4767,
      "procrastinador": 4768,
      "molec": 4769,
      "necessidade": 4770,
      "peter": 4771,
      "vence": 4772,
      "emocion": 4773,
      "criterios": 4774,
      "expand": 4775,
      "##tipos": 4776,
      "consequencia": 4777,
      "mensagens": 4778,
      "fundacao": 4779,
      "fundadores": 4780,
      "grafico": 4781,
      "extraordinario": 4782,
      "diagnosticos": 4783,
      "pilula": 4784,
      "estatistica": 4785,
      "caracteres": 4786,
      "siria": 4787,
      "cuidados": 4788,
      "horizo": 4789,
      "panico": 4790,
      "museu": 4791,
      "museus": 4792,
      "abstra": 4793,
      "senhor": 4794,
      "desistir": 4795,
      "pudermos": 4796,
      "pescadores": 4797,
      "alimentacao": 4798,
      "braco": 4799,
      "harvard": 4800,
      "associa": 4801,
      "masculino": 4802,
      "perigoso": 4803,
      "personagens": 4804,
      "orgulh": 4805,
      "surpreendente": 4806,
      "fabrica": 4807,
      "eletronicos": 4808,
      "diminuir": 4809,
      "iniciativa": 4810,
      "planejamento": 4811,
      "biblioteca": 4812,
      "multipotenciais": 4813,
      "arabe": 4814,
      "elementos": 4815,
      "placebo": 4816,
      "discutir": 4817,
      "contexto": 4818,
      "alterna": 4819,
      "caixas": 4820,
      "esportes": 4821,
      "marketing": 4822,
      "senhoras": 4823,
      "discussao": 4824,
      "combustivel": 4825,
      "assustador": 4826,
      "odiava": 4827,
      "piloto": 4828,
      "vidro": 4829,
      "zambia": 4830,
      "aspectos": 4831,
      "acaso": 4832,
      "terrestre": 4833,
      "efetivamente": 4834,
      "engenharia": 4835,
      "necessariamente": 4836,
      "residuos": 4837,
      "youtube": 4838,
      "##ware": 4839,
      "maximizar": 4840,
      "alcool": 4841,
      "ajudou": 4842,
      "drucker": 4843,
      "henry": 4844,
      "igno": 4845,
      "itjta": 4846,
      "jason": 4847,
      "richard": 4848,
      "sarampo": 4849,
      "entusias": 4850,
      "exponencia": 4851,
      "objeto": 4852,
      "juventude": 4853,
      "facebook": 4854,
      "itjtawy": 4855,
      "36": 4856,
      "99": 4857,
      "ava": 4858,
      "acoes": 4859,
      "beis": 4860,
      "bancos": 4861,
      "cet": 4862,
      "ceg": 4863,
      "fur": 4864,
      "fib": 4865,
      "faria": 4866,
      "festa": 4867,
      "gro": 4868,
      "hal": 4869,
      "lorn": 4870,
      "mel": 4871,
      "mig": 4872,
      "nele": 4873,
      "nelas": 4874,
      "nisto": 4875,
      "ox": 4876,
      "pend": 4877,
      "ram": 4878,
      "rico": 4879,
      "renda": 4880,
      "sinc": 4881,
      "vender": 4882,
      "velha": 4883,
      "velhas": 4884,
      "wik": 4885,
      "##ire": 4886,
      "##iras": 4887,
      "##nal": 4888,
      "##urar": 4889,
      "##ucar": 4890,
      "##agens": 4891,
      "##oma": 4892,
      "##tente": 4893,
      "##fl": 4894,
      "##fia": 4895,
      "##falto": 4896,
      "##ck": 4897,
      "##rim": 4898,
      "##eamento": 4899,
      "##pac": 4900,
      "##pido": 4901,
      "##bas": 4902,
      "##bio": 4903,
      "##vias": 4904,
      "##vita": 4905,
      "##vidas": 4906,
      "##lacao": 4907,
      "##ze": 4908,
      "##zer": 4909,
      "##50": 4910,
      "##osamente": 4911,
      "##essos": 4912,
      "##nter": 4913,
      "colh": 4914,
      "queima": 4915,
      "esquis": 4916,
      "##enco": 4917,
      "##ensa": 4918,
      "##inando": 4919,
      "##andia": 4920,
      "##deia": 4921,
      "email": 4922,
      "##ecoes": 4923,
      "##ocas": 4924,
      "##ocam": 4925,
      "##cop": 4926,
      "mantas": 4927,
      "madeira": 4928,
      "asfalto": 4929,
      "dou": 4930,
      "##ilio": 4931,
      "nomes": 4932,
      "metas": 4933,
      "data": 4934,
      "conso": 4935,
      "sono": 4936,
      "natal": 4937,
      "natalia": 4938,
      "alar": 4939,
      "alimento": 4940,
      "altas": 4941,
      "alvos": 4942,
      "propa": 4943,
      "enter": 4944,
      "##mado": 4945,
      "ossos": 4946,
      "reduzir": 4947,
      "sug": 4948,
      "faixa": 4949,
      "##item": 4950,
      "##itaria": 4951,
      "tol": 4952,
      "ext": 4953,
      "ester": 4954,
      "estradas": 4955,
      "##essora": 4956,
      "ander": 4957,
      "anfit": 4958,
      "##uns": 4959,
      "##itou": 4960,
      "##ranio": 4961,
      "apre": 4962,
      "faziam": 4963,
      "cair": 4964,
      "cabo": 4965,
      "persegu": 4966,
      "percepcao": 4967,
      "eleicoes": 4968,
      "##umes": 4969,
      "##izamos": 4970,
      "haja": 4971,
      "mora": 4972,
      "mons": 4973,
      "moral": 4974,
      "##quete": 4975,
      "teriamos": 4976,
      "tracos": 4977,
      "parkin": 4978,
      "verde": 4979,
      "##etria": 4980,
      "disney": 4981,
      "espanha": 4982,
      "esporte": 4983,
      "##ograf": 4984,
      "queriamos": 4985,
      "contras": 4986,
      "realista": 4987,
      "realizar": 4988,
      "forem": 4989,
      "##ometros": 4990,
      "sementes": 4991,
      "arro": 4992,
      "resum": 4993,
      "##raria": 4994,
      "##taria": 4995,
      "constro": 4996,
      "##lant": 4997,
      "##lacoes": 4998,
      "lanter": 4999,
      "pensaram": 5000,
      "paco": 5001,
      "##troc": 5002,
      "leoa": 5003,
      "passe": 5004,
      "abando": 5005,
      "escuta": 5006,
      "escasse": 5007,
      "fila": 5008,
      "duz": 5009,
      "virou": 5010,
      "##pad": 5011,
      "diferencia": 5012,
      "nessas": 5013,
      "casamento": 5014,
      "##rup": 5015,
      "recem": 5016,
      "recor": 5017,
      "recente": 5018,
      "sentado": 5019,
      "tornei": 5020,
      "tornamos": 5021,
      "carne": 5022,
      "cartao": 5023,
      "manda": 5024,
      "manif": 5025,
      "##ipedia": 5026,
      "nasa": 5027,
      "confro": 5028,
      "conferencia": 5029,
      "marco": 5030,
      "loja": 5031,
      "tenhamos": 5032,
      "humil": 5033,
      "conseguiu": 5034,
      "conseguiram": 5035,
      "aju": 5036,
      "ajude": 5037,
      "jud": 5038,
      "atitu": 5039,
      "##essao": 5040,
      "instal": 5041,
      "incor": 5042,
      "incend": 5043,
      "adicion": 5044,
      "deixei": 5045,
      "autor": 5046,
      "augus": 5047,
      "visoes": 5048,
      "conhecia": 5049,
      "propriedades": 5050,
      "##torias": 5051,
      "transmit": 5052,
      "afric": 5053,
      "funcionou": 5054,
      "center": 5055,
      "estarmos": 5056,
      "estaremos": 5057,
      "##vesse": 5058,
      "referencia": 5059,
      "colocou": 5060,
      "gradu": 5061,
      "roda": 5062,
      "professora": 5063,
      "indica": 5064,
      "botao": 5065,
      "bryan": 5066,
      "ultimas": 5067,
      "conversando": 5068,
      "agir": 5069,
      "voo": 5070,
      "basica": 5071,
      "interessado": 5072,
      "carater": 5073,
      "cabelo": 5074,
      "poderoso": 5075,
      "permitam": 5076,
      "escolhi": 5077,
      "limite": 5078,
      "##peu": 5079,
      "trip": 5080,
      "naquilo": 5081,
      "negros": 5082,
      "aparecer": 5083,
      "genoma": 5084,
      "pegamos": 5085,
      "##tadora": 5086,
      "epidem": 5087,
      "acabamos": 5088,
      "femto": 5089,
      "ajudaram": 5090,
      "curto": 5091,
      "pedras": 5092,
      "violino": 5093,
      "aprendemos": 5094,
      "crescendo": 5095,
      "obsc": 5096,
      "atravessar": 5097,
      "bonito": 5098,
      "evolucion": 5099,
      "trabalhei": 5100,
      "importancia": 5101,
      "regiao": 5102,
      "compartilha": 5103,
      "conseguirmos": 5104,
      "economicas": 5105,
      "hones": 5106,
      "impul": 5107,
      "senso": 5108,
      "senado": 5109,
      "usados": 5110,
      "olho": 5111,
      "organismo": 5112,
      "organismos": 5113,
      "atuais": 5114,
      "produzimos": 5115,
      "recebeu": 5116,
      "susp": 5117,
      "apresentar": 5118,
      "fotografias": 5119,
      "americana": 5120,
      "2000": 5121,
      "costa": 5122,
      "passou": 5123,
      "aplicativos": 5124,
      "levei": 5125,
      "passava": 5126,
      "profunda": 5127,
      "quarta": 5128,
      "pensamentos": 5129,
      "medicamento": 5130,
      "medicamentos": 5131,
      "frank": 5132,
      "multi": 5133,
      "desconhec": 5134,
      "incrivelmente": 5135,
      "oceanos": 5136,
      "conectar": 5137,
      "complexidade": 5138,
      "preocup": 5139,
      "armados": 5140,
      "comportamentos": 5141,
      "##elhado": 5142,
      "cameras": 5143,
      "escravos": 5144,
      "alcance": 5145,
      "tomates": 5146,
      "internamente": 5147,
      "reator": 5148,
      "dorm": 5149,
      "sozinha": 5150,
      "divul": 5151,
      "analise": 5152,
      "quiserem": 5153,
      "expressao": 5154,
      "achamos": 5155,
      "divertida": 5156,
      "essencial": 5157,
      "mundiais": 5158,
      "mostram": 5159,
      "opinioes": 5160,
      "ensinaram": 5161,
      "conforme": 5162,
      "critica": 5163,
      "engenheiro": 5164,
      "florestas": 5165,
      "ileg": 5166,
      "vizinho": 5167,
      "comercio": 5168,
      "exped": 5169,
      "leiser": 5170,
      "instituicoes": 5171,
      "memorizar": 5172,
      "surgiu": 5173,
      "haveria": 5174,
      "espalhar": 5175,
      "selecion": 5176,
      "dirigir": 5177,
      "morreram": 5178,
      "extraordinarios": 5179,
      "profissional": 5180,
      "industrial": 5181,
      "caracteristicas": 5182,
      "acompanha": 5183,
      "namorado": 5184,
      "debate": 5185,
      "motivacao": 5186,
      "milag": 5187,
      "cuidado": 5188,
      "neurocient": 5189,
      "rastre": 5190,
      "conflitos": 5191,
      "1980": 5192,
      "terrorismo": 5193,
      "universal": 5194,
      "hormo": 5195,
      "coloque": 5196,
      "coloquei": 5197,
      "psicologos": 5198,
      "amostra": 5199,
      "senhores": 5200,
      "contempl": 5201,
      "bakers": 5202,
      "envolvido": 5203,
      "horrivel": 5204,
      "piada": 5205,
      "##genos": 5206,
      "personagem": 5207,
      "preench": 5208,
      "baixar": 5209,
      "orgulho": 5210,
      "lacos": 5211,
      "declinio": 5212,
      "integracao": 5213,
      "kenema": 5214,
      "empol": 5215,
      "1970": 5216,
      "substitu": 5217,
      "adolescentes": 5218,
      "alegria": 5219,
      "satisf": 5220,
      "refletir": 5221,
      "francamente": 5222,
      "desconfortavel": 5223,
      "cedo": 5224,
      "gigantes": 5225,
      "congresso": 5226,
      "terminar": 5227,
      "avanco": 5228,
      "colaboracao": 5229,
      "selvagens": 5230,
      "cromossomo": 5231,
      "garantir": 5232,
      "propensas": 5233,
      "adequadamente": 5234,
      "deserto": 5235,
      "espirito": 5236,
      "composicao": 5237,
      "equilibrio": 5238,
      "banheiro": 5239,
      "fenomeno": 5240,
      "twit": 5241,
      "inevita": 5242,
      "tempt": 5243,
      "desesperadamente": 5244,
      "chuva": 5245,
      "sobrecarga": 5246,
      "integrar": 5247,
      "restaurante": 5248,
      "androgenos": 5249,
      "perturbado": 5250,
      "charles": 5251,
      "bairro": 5252,
      "infantil": 5253,
      "correspond": 5254,
      "aeropor": 5255,
      "titanic": 5256,
      "seattle": 5257,
      "excepcional": 5258,
      "advog": 5259,
      "evangelho": 5260,
      "barulho": 5261,
      "avatar": 5262,
      "beisebol": 5263,
      "lorna": 5264,
      "wikipedia": 5265,
      "anderson": 5266,
      "monstro": 5267,
      "parkinson": 5268,
      "auguste": 5269,
      ".,": 5270,
      "23": 5271,
      "28": 5272,
      "75": 5273,
      "abre": 5274,
      "aulas": 5275,
      "cred": 5276,
      "cint": 5277,
      "fir": 5278,
      "fras": 5279,
      "gent": 5280,
      "gelo": 5281,
      "hip": 5282,
      "ido": 5283,
      "ilusao": 5284,
      "ipad": 5285,
      "kg": 5286,
      "lent": 5287,
      "lan": 5288,
      "lindo": 5289,
      "mito": 5290,
      "meios": 5291,
      "odio": 5292,
      "pc": 5293,
      "pecas": 5294,
      "pamp": 5295,
      "rol": 5296,
      "resso": 5297,
      "sco": 5298,
      "site": 5299,
      "singu": 5300,
      "ts": 5301,
      "telhado": 5302,
      "ul": 5303,
      "utero": 5304,
      "uranio": 5305,
      "vin": 5306,
      "vig": 5307,
      "viam": 5308,
      "windo": 5309,
      "zo": 5310,
      "##iem": 5311,
      "##into": 5312,
      "##iper": 5313,
      "##irou": 5314,
      "##nio": 5315,
      "##uo": 5316,
      "##aa": 5317,
      "##agem": 5318,
      "##dr": 5319,
      "##dy": 5320,
      "##dida": 5321,
      "##dir": 5322,
      "##didade": 5323,
      "##ok": 5324,
      "##sia": 5325,
      "##sam": 5326,
      "##siqu": 5327,
      "##mac": 5328,
      "##macao": 5329,
      "##tt": 5330,
      "##ty": 5331,
      "##tus": 5332,
      "##temos": 5333,
      "##tif": 5334,
      "##tina": 5335,
      "##tware": 5336,
      "##fo": 5337,
      "##fra": 5338,
      "##cil": 5339,
      "##hel": 5340,
      "##hei": 5341,
      "##eos": 5342,
      "##eda": 5343,
      "##bul": 5344,
      "##vao": 5345,
      "##lor": 5346,
      "##lim": 5347,
      "##ke": 5348,
      "##zz": 5349,
      "##zas": 5350,
      "##rantes": 5351,
      "##rativa": 5352,
      "##rafa": 5353,
      "##estar": 5354,
      "##eric": 5355,
      "##erio": 5356,
      "dedo": 5357,
      "devol": 5358,
      "##iso": 5359,
      "##issar": 5360,
      "##isoes": 5361,
      "queira": 5362,
      "##orge": 5363,
      "##iados": 5364,
      "escadas": 5365,
      "##tava": 5366,
      "##enos": 5367,
      "##ami": 5368,
      "set": 5369,
      "##imm": 5370,
      "##elulares": 5371,
      "emit": 5372,
      "##quia": 5373,
      "##quec": 5374,
      "ponta": 5375,
      "asper": 5376,
      "##tegia": 5377,
      "don": 5378,
      "noites": 5379,
      "estarao": 5380,
      "meados": 5381,
      "dava": 5382,
      "conceb": 5383,
      "aliv": 5384,
      "##hado": 5385,
      "##hados": 5386,
      "prontos": 5387,
      "promet": 5388,
      "##acidade": 5389,
      "entrando": 5390,
      "entrada": 5391,
      "osso": 5392,
      "repl": 5393,
      "iner": 5394,
      "inim": 5395,
      "inva": 5396,
      "incom": 5397,
      "supos": 5398,
      "desm": 5399,
      "destas": 5400,
      "##poran": 5401,
      "estaria": 5402,
      "estilo": 5403,
      "foo": 5404,
      "envio": 5405,
      "fazende": 5406,
      "canto": 5407,
      "cantos": 5408,
      "seriamos": 5409,
      "podiam": 5410,
      "podiamos": 5411,
      "perigo": 5412,
      "perdeu": 5413,
      "##izaram": 5414,
      "cheio": 5415,
      "movel": 5416,
      "mobilidade": 5417,
      "moham": 5418,
      "acion": 5419,
      "prec": 5420,
      "predio": 5421,
      "preven": 5422,
      "espeta": 5423,
      "##lhas": 5424,
      "querendo": 5425,
      "##ifor": 5426,
      "obra": 5427,
      "arco": 5428,
      "arru": 5429,
      "reser": 5430,
      "constante": 5431,
      "consider": 5432,
      "imer": 5433,
      "impo": 5434,
      "impre": 5435,
      "falava": 5436,
      "post": 5437,
      "posicion": 5438,
      "positivo": 5439,
      "##tiveis": 5440,
      "##lah": 5441,
      "podera": 5442,
      "criaram": 5443,
      "criatura": 5444,
      "precisao": 5445,
      "tiro": 5446,
      "tirou": 5447,
      "##inham": 5448,
      "onda": 5449,
      "unir": 5450,
      "unidade": 5451,
      "unifor": 5452,
      "leve": 5453,
      "camis": 5454,
      "virar": 5455,
      "virando": 5456,
      "similar": 5457,
      "funcoes": 5458,
      "interna": 5459,
      "intersexual": 5460,
      "casca": 5461,
      "chamar": 5462,
      "chamadas": 5463,
      "##cionamento": 5464,
      "##iarca": 5465,
      "sentem": 5466,
      "caro": 5467,
      "clack": 5468,
      "pergunto": 5469,
      "##tasse": 5470,
      "mandar": 5471,
      "manip": 5472,
      "entreten": 5473,
      "perguntamos": 5474,
      "irre": 5475,
      "iremos": 5476,
      "confusa": 5477,
      "##ancando": 5478,
      "formato": 5479,
      "talentos": 5480,
      "taliba": 5481,
      "juiz": 5482,
      "juntar": 5483,
      "encontra": 5484,
      "encontrou": 5485,
      "encontraram": 5486,
      "possiveis": 5487,
      "morto": 5488,
      "morrem": 5489,
      "atlant": 5490,
      "insist": 5491,
      "incl": 5492,
      "experimentos": 5493,
      "##logo": 5494,
      "presa": 5495,
      "presos": 5496,
      "prestes": 5497,
      "##cular": 5498,
      "visita": 5499,
      "praia": 5500,
      "pesc": 5501,
      "gostam": 5502,
      "gotas": 5503,
      "transm": 5504,
      "transpor": 5505,
      "transporte": 5506,
      "afora": 5507,
      "concer": 5508,
      "funcionando": 5509,
      "colocando": 5510,
      "norma": 5511,
      "dificuldade": 5512,
      "rota": 5513,
      "robos": 5514,
      "polar": 5515,
      "polio": 5516,
      "chegam": 5517,
      "voar": 5518,
      "vovo": 5519,
      "contrad": 5520,
      "atrav": 5521,
      "##acionais": 5522,
      "variedade": 5523,
      "##iquem": 5524,
      "cerebrais": 5525,
      "conscientes": 5526,
      "##ganda": 5527,
      "cheia": 5528,
      "confiantes": 5529,
      "tantos": 5530,
      "triste": 5531,
      "levanta": 5532,
      "levantar": 5533,
      "subjet": 5534,
      "submet": 5535,
      "aparelho": 5536,
      "participa": 5537,
      "tratados": 5538,
      "##itario": 5539,
      "gene": 5540,
      "libia": 5541,
      "##idez": 5542,
      "epico": 5543,
      "ajudam": 5544,
      "mald": 5545,
      "pedimos": 5546,
      "vivia": 5547,
      "aprendendo": 5548,
      "musical": 5549,
      "repara": 5550,
      "cujo": 5551,
      "obsta": 5552,
      "receber": 5553,
      "viaj": 5554,
      "progress": 5555,
      "##reiro": 5556,
      "sonhar": 5557,
      "solic": 5558,
      "##grafia": 5559,
      "circ": 5560,
      "daqueles": 5561,
      "explos": 5562,
      "honesto": 5563,
      "identificar": 5564,
      "passamos": 5565,
      "passaram": 5566,
      "apropr": 5567,
      "aprofun": 5568,
      "esperava": 5569,
      "ocid": 5570,
      "ocidente": 5571,
      "ocorre": 5572,
      "ocup": 5573,
      "passaros": 5574,
      "fundamentalmente": 5575,
      "barre": 5576,
      "animacao": 5577,
      "inspirar": 5578,
      "principais": 5579,
      "principios": 5580,
      "proteg": 5581,
      "proteina": 5582,
      "apresenta": 5583,
      "fotografar": 5584,
      "correta": 5585,
      "educar": 5586,
      "sinfon": 5587,
      "automa": 5588,
      "colapso": 5589,
      "combinar": 5590,
      "naturalmente": 5591,
      "treinar": 5592,
      "solucionar": 5593,
      "amava": 5594,
      "prazos": 5595,
      "entendimento": 5596,
      "revistas": 5597,
      "extrema": 5598,
      "ligacao": 5599,
      "conden": 5600,
      "compreensao": 5601,
      "saneamento": 5602,
      "demora": 5603,
      "farmac": 5604,
      "considerado": 5605,
      "normalidade": 5606,
      "trabalhava": 5607,
      "celulares": 5608,
      "sofrendo": 5609,
      "nasci": 5610,
      "nascimento": 5611,
      "quimica": 5612,
      "determinado": 5613,
      "flutu": 5614,
      "george": 5615,
      "vacina": 5616,
      "sofistica": 5617,
      "software": 5618,
      "analog": 5619,
      "conservadores": 5620,
      "estivemos": 5621,
      "ampliar": 5622,
      "mecanismo": 5623,
      "emocoes": 5624,
      "reunioes": 5625,
      "inteiramente": 5626,
      "exige": 5627,
      "crucial": 5628,
      "registrar": 5629,
      "desempre": 5630,
      "assustadora": 5631,
      "agricultores": 5632,
      "texas": 5633,
      "espere": 5634,
      "mergulha": 5635,
      "estatisticas": 5636,
      "jornalistas": 5637,
      "acompanh": 5638,
      "batendo": 5639,
      "responsavel": 5640,
      "oferecem": 5641,
      "independente": 5642,
      "engano": 5643,
      "fornecer": 5644,
      "infeccao": 5645,
      "guarda": 5646,
      "steve": 5647,
      "steph": 5648,
      "experimentar": 5649,
      "financeira": 5650,
      "geneticamente": 5651,
      "revelar": 5652,
      "acessivel": 5653,
      "contemporan": 5654,
      "cinzentas": 5655,
      "1990": 5656,
      "sobrevivencia": 5657,
      "lancamento": 5658,
      "oposto": 5659,
      "escapar": 5660,
      "preencher": 5661,
      "caminhar": 5662,
      "caminhao": 5663,
      "sequencia": 5664,
      "sequencias": 5665,
      "declara": 5666,
      "civilizacao": 5667,
      "comentarios": 5668,
      "estrategia": 5669,
      "envelh": 5670,
      "otimismo": 5671,
      "liquido": 5672,
      "eliminar": 5673,
      "motorista": 5674,
      "usuarios": 5675,
      "esperancas": 5676,
      "excelente": 5677,
      "expectativas": 5678,
      "##iclop": 5679,
      "incomo": 5680,
      "montagem": 5681,
      "inclusive": 5682,
      "fizermos": 5683,
      "fascinante": 5684,
      "miseric": 5685,
      "status": 5686,
      "sujeira": 5687,
      "resistencia": 5688,
      "fracasso": 5689,
      "encorajar": 5690,
      "drogas": 5691,
      "predadores": 5692,
      "cardiolog": 5693,
      "privilegio": 5694,
      "aterror": 5695,
      "lideranca": 5696,
      "releva": 5697,
      "quilometros": 5698,
      "injustica": 5699,
      "desastre": 5700,
      "enxergar": 5701,
      "acostuma": 5702,
      "constantemente": 5703,
      "brincadeira": 5704,
      "alienigena": 5705,
      "desigualdade": 5706,
      "boston": 5707,
      "dicionario": 5708,
      "desperd": 5709,
      "invisiveis": 5710,
      "pendulo": 5711,
      "alarme": 5712,
      "##ografia": 5713,
      "lanternas": 5714,
      "escassez": 5715,
      "incorpo": 5716,
      "rastrear": 5717,
      "aeroporto": 5718,
      "lentamente": 5719,
      "pampsiqu": 5720,
      "ressonancia": 5721,
      "singular": 5722,
      "windows": 5723,
      "zoom": 5724,
      "asperger": 5725,
      "entretenimento": 5726,
      "aprofundar": 5727,
      "45": 5728,
      "aer": 5729,
      "bet": 5730,
      "bras": 5731,
      "bela": 5732,
      "bizar": 5733,
      "cic": 5734,
      "civ": 5735,
      "cana": 5736,
      "damos": 5737,
      "dann": 5738,
      "eol": 5739,
      "etica": 5740,
      "fara": 5741,
      "fix": 5742,
      "fique": 5743,
      "focar": 5744,
      "gem": 5745,
      "gor": 5746,
      "hid": 5747,
      "hipo": 5748,
      "icon": 5749,
      "ilus": 5750,
      "idades": 5751,
      "jun": 5752,
      "jorda": 5753,
      "ko": 5754,
      "kada": 5755,
      "licoes": 5756,
      "lestra": 5757,
      "lama": 5758,
      "mala": 5759,
      "mentais": 5760,
      "ov": 5761,
      "ora": 5762,
      "ofic": 5763,
      "oeste": 5764,
      "pess": 5765,
      "pular": 5766,
      "ren": 5767,
      "rios": 5768,
      "ricos": 5769,
      "raro": 5770,
      "riqu": 5771,
      "raramente": 5772,
      "sk": 5773,
      "star": 5774,
      "sla": 5775,
      "sard": 5776,
      "th": 5777,
      "tente": 5778,
      "tun": 5779,
      "toca": 5780,
      "uau": 5781,
      "van": 5782,
      "vil": 5783,
      "velhos": 5784,
      "vinham": 5785,
      "zim": 5786,
      "##gao": 5787,
      "##gando": 5788,
      "##ure": 5789,
      "##aixao": 5790,
      "##dao": 5791,
      "##mi": 5792,
      "##mb": 5793,
      "##tia": 5794,
      "##tres": 5795,
      "##tenc": 5796,
      "##tum": 5797,
      "##tendo": 5798,
      "##toria": 5799,
      "##tipo": 5800,
      "##tional": 5801,
      "##fin": 5802,
      "##cestra": 5803,
      "##ht": 5804,
      "##haram": 5805,
      "##eas": 5806,
      "##ear": 5807,
      "##pp": 5808,
      "##pra": 5809,
      "##puta": 5810,
      "##by": 5811,
      "##bes": 5812,
      "##bec": 5813,
      "##vidade": 5814,
      "##vidos": 5815,
      "##ler": 5816,
      "##lem": 5817,
      "##loc": 5818,
      "##land": 5819,
      "##zar": 5820,
      "##ya": 5821,
      "##ye": 5822,
      "##jos": 5823,
      "##jud": 5824,
      "##ravam": 5825,
      "##ester": 5826,
      "dea": 5827,
      "cobr": 5828,
      "##doto": 5829,
      "##orro": 5830,
      "##iada": 5831,
      "##entacao": 5832,
      "##davel": 5833,
      "##inosos": 5834,
      "##icamos": 5835,
      "##icios": 5836,
      "##icla": 5837,
      "##icelulares": 5838,
      "##alia": 5839,
      "##anhar": 5840,
      "##imens": 5841,
      "##ell": 5842,
      "##ech": 5843,
      "##ecada": 5844,
      "parab": 5845,
      "pararam": 5846,
      "mul": 5847,
      "pote": 5848,
      "mad": 5849,
      "maes": 5850,
      "matou": 5851,
      "astro": 5852,
      "##teis": 5853,
      "##tebol": 5854,
      "dolor": 5855,
      "##idamente": 5856,
      "notar": 5857,
      "estacao": 5858,
      "estaveis": 5859,
      "estatais": 5860,
      "estacionamento": 5861,
      "vocais": 5862,
      "nacao": 5863,
      "nadar": 5864,
      "ala": 5865,
      "alum": 5866,
      "altar": 5867,
      "alea": 5868,
      "alerta": 5869,
      "prontas": 5870,
      "provar": 5871,
      "ouve": 5872,
      "refor": 5873,
      "ina": 5874,
      "inespera": 5875,
      "inau": 5876,
      "supor": 5877,
      "desp": 5878,
      "desac": 5879,
      "desma": 5880,
      "despre": 5881,
      "##pont": 5882,
      "fatores": 5883,
      "##ith": 5884,
      "##itney": 5885,
      "##icais": 5886,
      "##hool": 5887,
      "exilio": 5888,
      "estoria": 5889,
      "estigma": 5890,
      "ancestra": 5891,
      "##unami": 5892,
      "##igar": 5893,
      "enr": 5894,
      "enver": 5895,
      "enga": 5896,
      "enven": 5897,
      "aptidao": 5898,
      "fazendas": 5899,
      "caiu": 5900,
      "perde": 5901,
      "peritos": 5902,
      "perdem": 5903,
      "pernas": 5904,
      "pertenc": 5905,
      "##dasse": 5906,
      "##tracao": 5907,
      "elevador": 5908,
      "##adora": 5909,
      "##ize": 5910,
      "acamp": 5911,
      "acucar": 5912,
      "distante": 5913,
      "distantes": 5914,
      "crer": 5915,
      "crenca": 5916,
      "preto": 5917,
      "prejud": 5918,
      "##ogio": 5919,
      "##idimens": 5920,
      "##eral": 5921,
      "contei": 5922,
      "realizacoes": 5923,
      "amanha": 5924,
      "amigas": 5925,
      "formos": 5926,
      "fortal": 5927,
      "forcado": 5928,
      "intens": 5929,
      "intencion": 5930,
      "prema": 5931,
      "##itante": 5932,
      "##rassem": 5933,
      "obtiv": 5934,
      "obses": 5935,
      "obvias": 5936,
      "suave": 5937,
      "compaixao": 5938,
      "arras": 5939,
      "restos": 5940,
      "resina": 5941,
      "sabiamos": 5942,
      "imun": 5943,
      "falem": 5944,
      "##posicao": 5945,
      "##later": 5946,
      "lata": 5947,
      "pedes": 5948,
      "criativas": 5949,
      "##eriamos": 5950,
      "esteve": 5951,
      "tira": 5952,
      "tirei": 5953,
      "tipico": 5954,
      "trabalhos": 5955,
      "##inhar": 5956,
      "luc": 5957,
      "##uri": 5958,
      "##urg": 5959,
      "##uridao": 5960,
      "pat": 5961,
      "pausa": 5962,
      "patroc": 5963,
      "onib": 5964,
      "##iamento": 5965,
      "escuridao": 5966,
      "duvidas": 5967,
      "vira": 5968,
      "menores": 5969,
      "funcao": 5970,
      "casulo": 5971,
      "segurar": 5972,
      "reclam": 5973,
      "recicla": 5974,
      "chamava": 5975,
      "imagino": 5976,
      "##velmente": 5977,
      "ideal": 5978,
      "sentindo": 5979,
      "carc": 5980,
      "carvao": 5981,
      "milenio": 5982,
      "##estima": 5983,
      "##estino": 5984,
      "clar": 5985,
      "manga": 5986,
      "futebol": 5987,
      "iris": 5988,
      "##irao": 5989,
      "##iracao": 5990,
      "vaga": 5991,
      "volume": 5992,
      "configu": 5993,
      "mary": 5994,
      "ficaria": 5995,
      "pux": 5996,
      "espectro": 5997,
      "direcoes": 5998,
      "diretores": 5999,
      "tecnica": 6000,
      "##gaos": 6001,
      "##ganta": 6002,
      "bater": 6003,
      "moro": 6004,
      "mortal": 6005,
      "mortes": 6006,
      "mortem": 6007,
      "processar": 6008,
      "atend": 6009,
      "##entagem": 6010,
      "insul": 6011,
      "adqu": 6012,
      "aconteceram": 6013,
      "quantos": 6014,
      "##ificando": 6015,
      "##ificamos": 6016,
      "##ificou": 6017,
      "##ificaram": 6018,
      "deixamos": 6019,
      "olhem": 6020,
      "prestando": 6021,
      "##cula": 6022,
      "propri": 6023,
      "##torios": 6024,
      "lembramos": 6025,
      "significar": 6026,
      "##inario": 6027,
      "conceitos": 6028,
      "completar": 6029,
      "descons": 6030,
      "orgaos": 6031,
      "acreditem": 6032,
      "funcionario": 6033,
      "funcionarios": 6034,
      "central": 6035,
      "reflex": 6036,
      "colocaram": 6037,
      "significava": 6038,
      "mudado": 6039,
      "gravar": 6040,
      "rober": 6041,
      "infra": 6042,
      "inflam": 6043,
      "inferior": 6044,
      "##enham": 6045,
      "desab": 6046,
      "proximas": 6047,
      "ouviu": 6048,
      "##radora": 6049,
      "##babu": 6050,
      "chegaram": 6051,
      "agred": 6052,
      "agenda": 6053,
      "voam": 6054,
      "basta": 6055,
      "livres": 6056,
      "livings": 6057,
      "atrair": 6058,
      "valv": 6059,
      "valiosas": 6060,
      "permissao": 6061,
      "escolhida": 6062,
      "precisavamos": 6063,
      "tentem": 6064,
      "tentam": 6065,
      "enquad": 6066,
      "mostraram": 6067,
      "##peia": 6068,
      "cheque": 6069,
      "desenvolveram": 6070,
      "levado": 6071,
      "levante": 6072,
      "errada": 6073,
      "erradas": 6074,
      "salao": 6075,
      "##ulacoes": 6076,
      "publicas": 6077,
      "publicacao": 6078,
      "acabam": 6079,
      "pacifico": 6080,
      "supercomp": 6081,
      "avioes": 6082,
      "avancos": 6083,
      "curta": 6084,
      "pedra": 6085,
      "pesquisadores": 6086,
      "gostariamos": 6087,
      "interessados": 6088,
      "merece": 6089,
      "descobriram": 6090,
      "violentos": 6091,
      "diversos": 6092,
      "diversao": 6093,
      "viva": 6094,
      "comecarmos": 6095,
      "musicas": 6096,
      "arquivo": 6097,
      "imaginando": 6098,
      "computacao": 6099,
      "artico": 6100,
      "artista": 6101,
      "artistas": 6102,
      "artific": 6103,
      "fisicamente": 6104,
      "##hasse": 6105,
      "adotar": 6106,
      "evoluiu": 6107,
      "##peracao": 6108,
      "continuam": 6109,
      "favoritas": 6110,
      "ficarem": 6111,
      "empregados": 6112,
      "regime": 6113,
      "laser": 6114,
      "economista": 6115,
      "trazem": 6116,
      "trazendo": 6117,
      "areia": 6118,
      "aplicar": 6119,
      "tomando": 6120,
      "usava": 6121,
      "usadas": 6122,
      "responde": 6123,
      "envolve": 6124,
      "discurso": 6125,
      "produziu": 6126,
      "canal": 6127,
      "recebendo": 6128,
      "##issoes": 6129,
      "extrair": 6130,
      "respeita": 6131,
      "fotografo": 6132,
      "2007": 6133,
      "carregar": 6134,
      "custos": 6135,
      "perfil": 6136,
      "testando": 6137,
      "observ": 6138,
      "observa": 6139,
      "descer": 6140,
      "distra": 6141,
      "distor": 6142,
      "jornais": 6143,
      "jornadas": 6144,
      "##tancias": 6145,
      "apavo": 6146,
      "decidiram": 6147,
      "buscando": 6148,
      "passaporte": 6149,
      "lindas": 6150,
      "colate": 6151,
      "colabora": 6152,
      "representar": 6153,
      "transformou": 6154,
      "transformacao": 6155,
      "houvesse": 6156,
      "companheiros": 6157,
      "telefones": 6158,
      "entendi": 6159,
      "exclusao": 6160,
      "acontecerem": 6161,
      "bale": 6162,
      "bolso": 6163,
      "devas": 6164,
      "formacao": 6165,
      "desconcer": 6166,
      "conectados": 6167,
      "sobrevive": 6168,
      "competicao": 6169,
      "aberta": 6170,
      "##guete": 6171,
      "aumentem": 6172,
      "free": 6173,
      "banco": 6174,
      "farei": 6175,
      "impresso": 6176,
      "##pensa": 6177,
      "potenciais": 6178,
      "potencialmente": 6179,
      "tomador": 6180,
      "inspirado": 6181,
      "remed": 6182,
      "barata": 6183,
      "nascer": 6184,
      "globo": 6185,
      "enciclop": 6186,
      "participacao": 6187,
      "mistura": 6188,
      "2010": 6189,
      "apaixonado": 6190,
      "torre": 6191,
      "comparada": 6192,
      "escritor": 6193,
      "publicado": 6194,
      "ohio": 6195,
      "analis": 6196,
      "espaciais": 6197,
      "consertar": 6198,
      "investimento": 6199,
      "bebe": 6200,
      "beber": 6201,
      "##visao": 6202,
      "expressar": 6203,
      "divertidas": 6204,
      "aproximou": 6205,
      "essenciais": 6206,
      "sensor": 6207,
      "provas": 6208,
      "inglater": 6209,
      "amplamente": 6210,
      "definicao": 6211,
      "vencer": 6212,
      "reunir": 6213,
      "complicada": 6214,
      "garrafa": 6215,
      "garganta": 6216,
      "iguais": 6217,
      "comprom": 6218,
      "instituto": 6219,
      "memoriz": 6220,
      "memorizando": 6221,
      "virtuais": 6222,
      "virtuosos": 6223,
      "espalhou": 6224,
      "abrace": 6225,
      "abracar": 6226,
      "malucas": 6227,
      "planejar": 6228,
      "grafite": 6229,
      "extraordinarias": 6230,
      "diagnostico": 6231,
      "golden": 6232,
      "pilulas": 6233,
      "separacao": 6234,
      "eletricidade": 6235,
      "administracao": 6236,
      "aguas": 6237,
      "agulha": 6238,
      "dividir": 6239,
      "sirios": 6240,
      "motivados": 6241,
      "parceiro": 6242,
      "parceiros": 6243,
      "coletar": 6244,
      "policiais": 6245,
      "independencia": 6246,
      "independentemente": 6247,
      "choque": 6248,
      "crime": 6249,
      "crimes": 6250,
      "prosper": 6251,
      "desaparec": 6252,
      "guardar": 6253,
      "bear": 6254,
      "buracos": 6255,
      "fronteiras": 6256,
      "glass": 6257,
      "herodoto": 6258,
      "italianos": 6259,
      "absor": 6260,
      "negativa": 6261,
      "negativas": 6262,
      "negativos": 6263,
      "corajoso": 6264,
      "bicic": 6265,
      "bichos": 6266,
      "acessiveis": 6267,
      "colonosco": 6268,
      "simbolo": 6269,
      "simbolos": 6270,
      "puderem": 6271,
      "envolvidos": 6272,
      "harlem": 6273,
      "piano": 6274,
      "denom": 6275,
      "contribuir": 6276,
      "intuitiva": 6277,
      "radical": 6278,
      "radicais": 6279,
      "instant": 6280,
      "paralisia": 6281,
      "berlim": 6282,
      "brancos": 6283,
      "lacuna": 6284,
      "fragil": 6285,
      "preocupacoes": 6286,
      "cirurgiao": 6287,
      "cirurgioes": 6288,
      "gerente": 6289,
      "kenn": 6290,
      "show": 6291,
      "shopp": 6292,
      "quebrado": 6293,
      "comete": 6294,
      "comemo": 6295,
      "proporcionar": 6296,
      "enviar": 6297,
      "encaix": 6298,
      "moderna": 6299,
      "tradicional": 6300,
      "privacidade": 6301,
      "lagoa": 6302,
      "descoberta": 6303,
      "otimista": 6304,
      "interagir": 6305,
      "executivos": 6306,
      "dramatico": 6307,
      "bibliotec": 6308,
      "multipotencial": 6309,
      "frutif": 6310,
      "school": 6311,
      "paradoxo": 6312,
      "enfim": 6313,
      "cavalo": 6314,
      "personal": 6315,
      "personalidade": 6316,
      "satisfa": 6317,
      "escaneado": 6318,
      "afirmacao": 6319,
      "reproducao": 6320,
      "expectativa": 6321,
      "etc": 6322,
      "pisc": 6323,
      "exposicao": 6324,
      "historico": 6325,
      "sapatos": 6326,
      "partida": 6327,
      "colorida": 6328,
      "ecolog": 6329,
      "vendido": 6330,
      "promover": 6331,
      "inocente": 6332,
      "desculpe": 6333,
      "prefeito": 6334,
      "escalas": 6335,
      "campanha": 6336,
      "procuramos": 6337,
      "orientacao": 6338,
      "academia": 6339,
      "anteriormente": 6340,
      "idiota": 6341,
      "embaixada": 6342,
      "atributos": 6343,
      "enfermeira": 6344,
      "swann": 6345,
      "semelhante": 6346,
      "caminhada": 6347,
      "instrucoes": 6348,
      "influencia": 6349,
      "ambiental": 6350,
      "aventura": 6351,
      "aproveitar": 6352,
      "nervoso": 6353,
      "centrifugas": 6354,
      "dinamica": 6355,
      "figura": 6356,
      "gamba": 6357,
      "##phone": 6358,
      "cozinha": 6359,
      "alois": 6360,
      "tijolos": 6361,
      "morrendo": 6362,
      "armadilha": 6363,
      "expandir": 6364,
      "horizonte": 6365,
      "tolera": 6366,
      "anfitr": 6367,
      "contraste": 6368,
      "humilde": 6369,
      "impulso": 6370,
      "hormonios": 6371,
      "twitter": 6372,
      "advogado": 6373,
      "tsunami": 6374,
      "ultra": 6375,
      "enviou": 6376,
      "mohamed": 6377,
      "reserva": 6378,
      "imprevis": 6379,
      "uniforme": 6380,
      "atlantico": 6381,
      "explosao": 6382,
      "barreira": 6383,
      "farmaceu": 6384,
      "stephen": 6385,
      "misericord": 6386,
      "danny": 6387,
      "kadafi": 6388,
      "lestrade": 6389,
      "riqueza": 6390,
      "slaves": 6391,
      "zimbabu": 6392,
      "aluminio": 6393,
      "envergon": 6394,
      "acampamento": 6395,
      "onibus": 6396,
      "livingston": 6397,
      "supercomputa": 6398,
      "inglaterra": 6399,
      "frutifera": 6400,
      "\"]": 6401,
      "',": 6402,
      "26": 6403,
      "32": 6404,
      "35": 6405,
      "anto": 6406,
      "atividade": 6407,
      "austra": 6408,
      "bei": 6409,
      "bul": 6410,
      "brig": 6411,
      "best": 6412,
      "cum": 6413,
      "cita": 6414,
      "cib": 6415,
      "cena": 6416,
      "caca": 6417,
      "ciclo": 6418,
      "cach": 6419,
      "dil": 6420,
      "ego": 6421,
      "efic": 6422,
      "eti": 6423,
      "fresc": 6424,
      "gam": 6425,
      "gel": 6426,
      "gros": 6427,
      "gala": 6428,
      "hem": 6429,
      "iam": 6430,
      "irei": 6431,
      "igre": 6432,
      "iron": 6433,
      "ilhas": 6434,
      "jar": 6435,
      "jon": 6436,
      "linda": 6437,
      "listas": 6438,
      "ligu": 6439,
      "mc": 6440,
      "ml": 6441,
      "moc": 6442,
      "mid": 6443,
      "mik": 6444,
      "nan": 6445,
      "neb": 6446,
      "neles": 6447,
      "nfl": 6448,
      "ont": 6449,
      "pao": 6450,
      "pion": 6451,
      "pico": 6452,
      "pira": 6453,
      "pivo": 6454,
      "poco": 6455,
      "roc": 6456,
      "ritu": 6457,
      "ripl": 6458,
      "sor": 6459,
      "sorr": 6460,
      "spear": 6461,
      "sessao": 6462,
      "tan": 6463,
      "tio": 6464,
      "tido": 6465,
      "tensao": 6466,
      "uganda": 6467,
      "vinda": 6468,
      "wh": 6469,
      "wat": 6470,
      "will": 6471,
      "xx": 6472,
      "zon": 6473,
      "##ij": 6474,
      "##inte": 6475,
      "##intes": 6476,
      "##nol": 6477,
      "##gamos": 6478,
      "##get": 6479,
      "##geno": 6480,
      "##ug": 6481,
      "##uz": 6482,
      "##uso": 6483,
      "##util": 6484,
      "##ufra": 6485,
      "##air": 6486,
      "##dman": 6487,
      "##onto": 6488,
      "##stron": 6489,
      "##tran": 6490,
      "##tizar": 6491,
      "##tificacao": 6492,
      "##fera": 6493,
      "##cr": 6494,
      "##cel": 6495,
      "##cura": 6496,
      "##rena": 6497,
      "##han": 6498,
      "##heiro": 6499,
      "##ete": 6500,
      "##pan": 6501,
      "##panca": 6502,
      "##bc": 6503,
      "##bios": 6504,
      "##bulo": 6505,
      "##betes": 6506,
      "##vira": 6507,
      "##lia": 6508,
      "##len": 6509,
      "##lig": 6510,
      "##lou": 6511,
      "##lon": 6512,
      "##ky": 6513,
      "##king": 6514,
      "##xas": 6515,
      "##josos": 6516,
      "##01": 6517,
      "##ose": 6518,
      "##ramente": 6519,
      "##eses": 6520,
      "##esas": 6521,
      "##esquec": 6522,
      "##ntamos": 6523,
      "##eron": 6524,
      "##errar": 6525,
      "quie": 6526,
      "deva": 6527,
      "dens": 6528,
      "deusa": 6529,
      "depara": 6530,
      "coral": 6531,
      "##ementar": 6532,
      "##issem": 6533,
      "esto": 6534,
      "esgo": 6535,
      "esmag": 6536,
      "##entimento": 6537,
      "##tacoes": 6538,
      "##tavio": 6539,
      "umidade": 6540,
      "##encoes": 6541,
      "##dada": 6542,
      "comendo": 6543,
      "comece": 6544,
      "compon": 6545,
      "##inou": 6546,
      "##iculo": 6547,
      "##alho": 6548,
      "##ancas": 6549,
      "severa": 6550,
      "##tora": 6551,
      "##imon": 6552,
      "##imetros": 6553,
      "##impan": 6554,
      "emer": 6555,
      "##quim": 6556,
      "parada": 6557,
      "paramed": 6558,
      "##ocada": 6559,
      "eleito": 6560,
      "poeta": 6561,
      "matr": 6562,
      "mach": 6563,
      "##tera": 6564,
      "##tein": 6565,
      "##guem": 6566,
      "##gulos": 6567,
      "##ilante": 6568,
      "notavel": 6569,
      "estavel": 6570,
      "estadio": 6571,
      "estabulo": 6572,
      "congo": 6573,
      "nacoes": 6574,
      "natan": 6575,
      "nairo": 6576,
      "national": 6577,
      "naufra": 6578,
      "alm": 6579,
      "altos": 6580,
      "##sadas": 6581,
      "prom": 6582,
      "pronta": 6583,
      "##acio": 6584,
      "diario": 6585,
      "entram": 6586,
      "##mada": 6587,
      "ouro": 6588,
      "rej": 6589,
      "rever": 6590,
      "repor": 6591,
      "insegu": 6592,
      "incon": 6593,
      "inducao": 6594,
      "inesquec": 6595,
      "supo": 6596,
      "sufic": 6597,
      "supon": 6598,
      "despe": 6599,
      "desvio": 6600,
      "despro": 6601,
      "##pol": 6602,
      "fatal": 6603,
      "##iter": 6604,
      "##itores": 6605,
      "##vada": 6606,
      "toque": 6607,
      "##icado": 6608,
      "##hoven": 6609,
      "expo": 6610,
      "##uloso": 6611,
      "##ola": 6612,
      "##istar": 6613,
      "##unas": 6614,
      "##unal": 6615,
      "##itora": 6616,
      "##rancia": 6617,
      "ender": 6618,
      "enfa": 6619,
      "apel": 6620,
      "faziamos": 6621,
      "cat": 6622,
      "pessoais": 6623,
      "pessoalmente": 6624,
      "perna": 6625,
      "perpe": 6626,
      "##ramas": 6627,
      "saia": 6628,
      "saimos": 6629,
      "sairam": 6630,
      "satel": 6631,
      "##izava": 6632,
      "##tudo": 6633,
      "##ouro": 6634,
      "##plan": 6635,
      "##plancton": 6636,
      "cheiro": 6637,
      "chip": 6638,
      "chimpan": 6639,
      "moto": 6640,
      "motores": 6641,
      "moeda": 6642,
      "sobretudo": 6643,
      "acum": 6644,
      "trap": 6645,
      "parou": 6646,
      "parks": 6647,
      "parlamento": 6648,
      "##ethoven": 6649,
      "disses": 6650,
      "dissemos": 6651,
      "crencas": 6652,
      "##lhos": 6653,
      "##ono": 6654,
      "##onimos": 6655,
      "##identes": 6656,
      "queridos": 6657,
      "##ificos": 6658,
      "dosagens": 6659,
      "##eravel": 6660,
      "conter": 6661,
      "contam": 6662,
      "realistas": 6663,
      "amiza": 6664,
      "amanda": 6665,
      "forcas": 6666,
      "##egar": 6667,
      "intim": 6668,
      "inteiros": 6669,
      "peles": 6670,
      "obama": 6671,
      "elabo": 6672,
      "compr": 6673,
      "compras": 6674,
      "compramos": 6675,
      "arg": 6676,
      "resga": 6677,
      "##endario": 6678,
      "consentimento": 6679,
      "imper": 6680,
      "##ceramento": 6681,
      "cerve": 6682,
      "fale": 6683,
      "falso": 6684,
      "falsa": 6685,
      "falaram": 6686,
      "dizemos": 6687,
      "diziam": 6688,
      "laco": 6689,
      "comecava": 6690,
      "criadores": 6691,
      "estejamos": 6692,
      "tip": 6693,
      "tiran": 6694,
      "tiramos": 6695,
      "##urbio": 6696,
      "##inacoes": 6697,
      "pater": 6698,
      "pape": 6699,
      "##trovira": 6700,
      "primos": 6701,
      "colecao": 6702,
      "colester": 6703,
      "uniao": 6704,
      "escolar": 6705,
      "letras": 6706,
      "hotel": 6707,
      "##ford": 6708,
      "abenco": 6709,
      "filoso": 6710,
      "dura": 6711,
      "durado": 6712,
      "aconteca": 6713,
      "viral": 6714,
      "cortes": 6715,
      "cortis": 6716,
      "rato": 6717,
      "raizes": 6718,
      "inters": 6719,
      "interface": 6720,
      "interplan": 6721,
      "segura": 6722,
      "seguindo": 6723,
      "##sario": 6724,
      "recus": 6725,
      "##rigera": 6726,
      "chamas": 6727,
      "##meta": 6728,
      "ideais": 6729,
      "sentados": 6730,
      "japon": 6731,
      "jazz": 6732,
      "poupanca": 6733,
      "militar": 6734,
      "##estao": 6735,
      "granada": 6736,
      "clara": 6737,
      "##doria": 6738,
      "mandei": 6739,
      "fuk": 6740,
      "nasce": 6741,
      "confessar": 6742,
      "marinha": 6743,
      "##ticar": 6744,
      "tecido": 6745,
      "especific": 6746,
      "plur": 6747,
      "junta": 6748,
      "tecnicos": 6749,
      "##igou": 6750,
      "bateria": 6751,
      "processos": 6752,
      "atre": 6753,
      "atores": 6754,
      "atleta": 6755,
      "face": 6756,
      "##edy": 6757,
      "incer": 6758,
      "inclusao": 6759,
      "jogamos": 6760,
      "deixam": 6761,
      "deixando": 6762,
      "deixado": 6763,
      "deixaram": 6764,
      "delic": 6765,
      "delica": 6766,
      "##hoso": 6767,
      "fins": 6768,
      "olhe": 6769,
      "preso": 6770,
      "presentes": 6771,
      "visitei": 6772,
      "pesa": 6773,
      "gota": 6774,
      "afro": 6775,
      "afog": 6776,
      "afetar": 6777,
      "orto": 6778,
      "oriente": 6779,
      "aprenderam": 6780,
      "funcionava": 6781,
      "centimetros": 6782,
      "estarem": 6783,
      "refrigera": 6784,
      "colocadas": 6785,
      "significativamente": 6786,
      "##bilita": 6787,
      "##ntagem": 6788,
      "falarei": 6789,
      "mudamos": 6790,
      "planetaria": 6791,
      "construiram": 6792,
      "grade": 6793,
      "grama": 6794,
      "graus": 6795,
      "gracas": 6796,
      "bomb": 6797,
      "##ingos": 6798,
      "profissao": 6799,
      "bote": 6800,
      "digno": 6801,
      "digino": 6802,
      "britney": 6803,
      "frio": 6804,
      "ambicao": 6805,
      "agre": 6806,
      "agencias": 6807,
      "agressao": 6808,
      "caps": 6809,
      "captura": 6810,
      "captando": 6811,
      "pensarem": 6812,
      "basicos": 6813,
      "basquete": 6814,
      "futuros": 6815,
      "longas": 6816,
      "existir": 6817,
      "percebe": 6818,
      "percebeu": 6819,
      "invas": 6820,
      "inventa": 6821,
      "cresceu": 6822,
      "...\"": 6823,
      "edicao": 6824,
      "##ganismos": 6825,
      "##pea": 6826,
      "confiaveis": 6827,
      "cinema": 6828,
      "palmas": 6829,
      "salvou": 6830,
      "aparece": 6831,
      "aparentemente": 6832,
      "apareceu": 6833,
      "rapidos": 6834,
      "##anhas": 6835,
      "tratamentos": 6836,
      "aumenta": 6837,
      "fertil": 6838,
      "##jama": 6839,
      "objetivamente": 6840,
      "general": 6841,
      "sabedoria": 6842,
      "pegando": 6843,
      "decorrer": 6844,
      "plant": 6845,
      "plantar": 6846,
      "superpo": 6847,
      "superior": 6848,
      "avanca": 6849,
      "curso": 6850,
      "curvas": 6851,
      "pedindo": 6852,
      "pediu": 6853,
      "espant": 6854,
      "espaguete": 6855,
      "violento": 6856,
      "exata": 6857,
      "antigos": 6858,
      "cientifico": 6859,
      "pareco": 6860,
      "imaginado": 6861,
      "apoiar": 6862,
      "curar": 6863,
      "razoa": 6864,
      "adoram": 6865,
      "adorava": 6866,
      "evoluir": 6867,
      "viajam": 6868,
      "prognos": 6869,
      "feminina": 6870,
      "feministas": 6871,
      "trabalham": 6872,
      "evita": 6873,
      "eventos": 6874,
      "mantendo": 6875,
      "entendermos": 6876,
      "acontecia": 6877,
      "acontecido": 6878,
      "favoritos": 6879,
      "intelec": 6880,
      "empregos": 6881,
      "sonha": 6882,
      "lassa": 6883,
      "compartilhando": 6884,
      "define": 6885,
      "terrenos": 6886,
      "reconcil": 6887,
      "conseguiria": 6888,
      "aplicacao": 6889,
      "arquiteto": 6890,
      "convencao": 6891,
      "convencion": 6892,
      "tomam": 6893,
      "assistente": 6894,
      "populares": 6895,
      "alunas": 6896,
      "discor": 6897,
      "resolve": 6898,
      "abrigo": 6899,
      "autista": 6900,
      "atuar": 6901,
      "octavio": 6902,
      "barrig": 6903,
      "cansado": 6904,
      "candida": 6905,
      "inspirou": 6906,
      "gasto": 6907,
      "gastando": 6908,
      "gastamos": 6909,
      "fotografei": 6910,
      "americanas": 6911,
      "2009": 6912,
      "interacoes": 6913,
      "custou": 6914,
      "perfeita": 6915,
      "testar": 6916,
      "##izante": 6917,
      "sentiria": 6918,
      "relacionada": 6919,
      "observando": 6920,
      "##drome": 6921,
      "distingu": 6922,
      "forcados": 6923,
      "correlacao": 6924,
      "decidiu": 6925,
      "projetistas": 6926,
      "engrena": 6927,
      "permitindo": 6928,
      "permitira": 6929,
      "garotas": 6930,
      "sinonimos": 6931,
      "sindrome": 6932,
      "marcadores": 6933,
      "automo": 6934,
      "coreana": 6935,
      "colageno": 6936,
      "naturais": 6937,
      "quartos": 6938,
      "quantidades": 6939,
      "explodir": 6940,
      "telefonica": 6941,
      "gangs": 6942,
      "entendem": 6943,
      "capacidades": 6944,
      "baleias": 6945,
      "bolsa": 6946,
      "frango": 6947,
      "multipl": 6948,
      "extremos": 6949,
      "estudando": 6950,
      "conecta": 6951,
      "conectando": 6952,
      "competir": 6953,
      "abertura": 6954,
      "abertas": 6955,
      "abertamente": 6956,
      "complexa": 6957,
      "necessarias": 6958,
      "150": 6959,
      "estrutural": 6960,
      "maravilhas": 6961,
      "demorar": 6962,
      "montamos": 6963,
      "comporta": 6964,
      "limitado": 6965,
      "banho": 6966,
      "minim": 6967,
      "escravizadas": 6968,
      "testiculos": 6969,
      "alcanca": 6970,
      "inspirada": 6971,
      "remi": 6972,
      "estudios": 6973,
      "trabalhadores": 6974,
      "neurolog": 6975,
      "chaves": 6976,
      "derram": 6977,
      "derru": 6978,
      "utilizar": 6979,
      "perdemos": 6980,
      "nascem": 6981,
      "sustentar": 6982,
      "individuais": 6983,
      "feed": 6984,
      "pijama": 6985,
      "usou": 6986,
      "imposs": 6987,
      "hospitais": 6988,
      "fantasia": 6989,
      "2014": 6990,
      "determinada": 6991,
      "geom": 6992,
      "torce": 6993,
      "toronto": 6994,
      "disposicao": 6995,
      "dispositivos": 6996,
      "comparado": 6997,
      "maravilhosas": 6998,
      "divida": 6999,
      "divisao": 7000,
      "just": 7001,
      "troca": 7002,
      "investindo": 7003,
      "adapta": 7004,
      "biologica": 7005,
      "estivessem": 7006,
      "armstron": 7007,
      "aproximar": 7008,
      "estrela": 7009,
      "monar": 7010,
      "acordar": 7011,
      "acordei": 7012,
      "ampla": 7013,
      "climaticas": 7014,
      "ensinou": 7015,
      "mecanismos": 7016,
      "bacteria": 7017,
      "peticao": 7018,
      "emocao": 7019,
      "emocional": 7020,
      "categor": 7021,
      "visualizar": 7022,
      "complicadas": 7023,
      "apresentada": 7024,
      "extremo": 7025,
      "literatura": 7026,
      "azuri": 7027,
      "membro": 7028,
      "exigir": 7029,
      "institucional": 7030,
      "surgindo": 7031,
      "surgiram": 7032,
      "virtual": 7033,
      "virtude": 7034,
      "vestindo": 7035,
      "espalhando": 7036,
      "capitalismo": 7037,
      "##aneamente": 7038,
      "porcentagem": 7039,
      "sustentabilidade": 7040,
      "diagnosticar": 7041,
      "crow": 7042,
      "pilhas": 7043,
      "deslumb": 7044,
      "administram": 7045,
      "brilhantes": 7046,
      "cultivamos": 7047,
      "operacional": 7048,
      "jornalista": 7049,
      "acompanhar": 7050,
      "namorada": 7051,
      "vermelha": 7052,
      "coletiva": 7053,
      "treinamento": 7054,
      "241": 7055,
      "##mart": 7056,
      "##hnem": 7057,
      "##issores": 7058,
      "modifica": 7059,
      "fornece": 7060,
      "volunt": 7061,
      "juntando": 7062,
      "universidades": 7063,
      "beethoven": 7064,
      "heroi": 7065,
      "louco": 7066,
      "louca": 7067,
      "loucura": 7068,
      "enviamos": 7069,
      "ameaca": 7070,
      "consultorio": 7071,
      "escondido": 7072,
      "escondidas": 7073,
      "escuras": 7074,
      "genetica": 7075,
      "corajosa": 7076,
      "perspectivas": 7077,
      "bicho": 7078,
      "ganhei": 7079,
      "ganhando": 7080,
      "venha": 7081,
      "venho": 7082,
      "exame": 7083,
      "examinar": 7084,
      "causar": 7085,
      "chinesa": 7086,
      "quadrados": 7087,
      "cinzenta": 7088,
      "tremenda": 7089,
      "convidado": 7090,
      "urban": 7091,
      "urbano": 7092,
      "danifica": 7093,
      "horror": 7094,
      "tentativa": 7095,
      "queimar": 7096,
      "exercicio": 7097,
      "exercicios": 7098,
      "perigosas": 7099,
      "intuicao": 7100,
      "instalacoes": 7101,
      "familiares": 7102,
      "levantou": 7103,
      "igualdade": 7104,
      "borbol": 7105,
      "branco": 7106,
      "mencionou": 7107,
      "tendencia": 7108,
      "tendencias": 7109,
      "entropia": 7110,
      "regular": 7111,
      "terminei": 7112,
      "entrevistas": 7113,
      "frustrados": 7114,
      "explicacoes": 7115,
      "fragmentos": 7116,
      "brook": 7117,
      "prototipo": 7118,
      "tradicao": 7119,
      "ajustar": 7120,
      "descoberto": 7121,
      "desenvolvido": 7122,
      "desafiador": 7123,
      "demonstrar": 7124,
      "folhas": 7125,
      "vasto": 7126,
      "variando": 7127,
      "placas": 7128,
      "usuario": 7129,
      "afirmar": 7130,
      "tribais": 7131,
      "tribunal": 7132,
      "esperancos": 7133,
      "inicialmente": 7134,
      "questionar": 7135,
      "reproduz": 7136,
      "magnetica": 7137,
      "desconfortaveis": 7138,
      "icebergs": 7139,
      "etio": 7140,
      "dobrar": 7141,
      "incons": 7142,
      "introducao": 7143,
      "abundante": 7144,
      "afastar": 7145,
      "convencer": 7146,
      "sofreu": 7147,
      "propensos": 7148,
      "lidam": 7149,
      "narrativa": 7150,
      "ocasiao": 7151,
      "renova": 7152,
      "renovar": 7153,
      "sujeito": 7154,
      "estiveram": 7155,
      "patriarca": 7156,
      "primavera": 7157,
      "coloridas": 7158,
      "imaginava": 7159,
      "brincando": 7160,
      "urgentes": 7161,
      "agradec": 7162,
      "agarrar": 7163,
      "buff": 7164,
      "holograf": 7165,
      "coberto": 7166,
      "ansiedade": 7167,
      "arrepend": 7168,
      "precisariam": 7169,
      "bateu": 7170,
      "brilho": 7171,
      "merecem": 7172,
      "encarar": 7173,
      "reconstruir": 7174,
      "lancador": 7175,
      "odiar": 7176,
      "##bour": 7177,
      "depressa": 7178,
      "cooperacao": 7179,
      "sobrenom": 7180,
      "estresse": 7181,
      "encarceramento": 7182,
      "rapaz": 7183,
      "rapazes": 7184,
      "governam": 7185,
      "chefes": 7186,
      "determinados": 7187,
      "retorno": 7188,
      "lesoes": 7189,
      "phi": 7190,
      "comediante": 7191,
      "incapac": 7192,
      "aplaud": 7193,
      "assassina": 7194,
      "argumento": 7195,
      "tranquila": 7196,
      "nutricao": 7197,
      "equivalente": 7198,
      "sintetica": 7199,
      "orgulhoso": 7200,
      "exponenciais": 7201,
      "furia": 7202,
      "esquisito": 7203,
      "##copio": 7204,
      "estereo": 7205,
      "pacote": 7206,
      "abandon": 7207,
      "duzias": 7208,
      "ajudem": 7209,
      "judith": 7210,
      "atitude": 7211,
      "incendio": 7212,
      "transmitido": 7213,
      "graduacao": 7214,
      "tripty": 7215,
      "epidemia": 7216,
      "evolucionaria": 7217,
      "multiplos": 7218,
      "milagros": 7219,
      "satisfacao": 7220,
      "correspondencia": 7221,
      "firme": 7222,
      "frases": 7223,
      "scott": 7224,
      "fazendeiros": 7225,
      "prevenir": 7226,
      "circuns": 7227,
      "apropriado": 7228,
      "ocupacao": 7229,
      "sinfonia": 7230,
      "flutuando": 7231,
      "incomoda": 7232,
      "relevante": 7233,
      "acostumados": 7234,
      "jordania": 7235,
      "kofi": 7236,
      "paraben": 7237,
      "inaugu": 7238,
      "enriqu": 7239,
      "envenen": 7240,
      "prematura": 7241,
      "mortalidade": 7242,
      "adquir": 7243,
      "valvulas": 7244,
      "colaterais": 7245,
      "impressora": 7246,
      "kennedy": 7247,
      "shopping": 7248,
      "bibliotecas": 7249,
      "misericordia": 7250,
      "zimbabue": 7251,
      "australia": 7252,
      "cachorro": 7253,
      "etique": 7254,
      "frescor": 7255,
      "igreja": 7256,
      "ontem": 7257,
      "ripley": 7258,
      "spears": 7259,
      "devagar": 7260,
      "natanz": 7261,
      "nairobi": 7262,
      "perpetu": 7263,
      "chimpanzes": 7264,
      "amizade": 7265,
      "papeis": 7266,
      "colesterol": 7267,
      "cortisol": 7268,
      "diginotar": 7269,
      "reconciliacao": 7270,
      "engrenagens": 7271,
      "gangster": 7272,
      "armstrong": 7273,
      "patriarcais": 7274,
      "triptych": 7275,
      "\"?": 7276,
      "%,": 7277,
      ".]": 7278,
      "54": 7279,
      "56": 7280,
      "65": 7281,
      "atos": 7282,
      "abal": 7283,
      "ativo": 7284,
      "bin": 7285,
      "bla": 7286,
      "bioc": 7287,
      "bech": 7288,
      "cd": 7289,
      "camb": 7290,
      "centa": 7291,
      "daria": 7292,
      "danos": 7293,
      "dancando": 7294,
      "fio": 7295,
      "fres": 7296,
      "fito": 7297,
      "fana": 7298,
      "feno": 7299,
      "flex": 7300,
      "gira": 7301,
      "gana": 7302,
      "gerencia": 7303,
      "hes": 7304,
      "hig": 7305,
      "hez": 7306,
      "hack": 7307,
      "ip": 7308,
      "imo": 7309,
      "je": 7310,
      "jen": 7311,
      "jimm": 7312,
      "kon": 7313,
      "khan": 7314,
      "lente": 7315,
      "leito": 7316,
      "lenta": 7317,
      "line": 7318,
      "lingu": 7319,
      "lance": 7320,
      "lumes": 7321,
      "ligou": 7322,
      "mg": 7323,
      "minh": 7324,
      "mina": 7325,
      "minas": 7326,
      "netos": 7327,
      "oi": 7328,
      "og": 7329,
      "ola": 7330,
      "pec": 7331,
      "pio": 7332,
      "pando": 7333,
      "pest": 7334,
      "rt": 7335,
      "rar": 7336,
      "ral": 7337,
      "rara": 7338,
      "renas": 7339,
      "ranc": 7340,
      "rura": 7341,
      "raras": 7342,
      "sh": 7343,
      "sam": 7344,
      "sit": 7345,
      "str": 7346,
      "stas": 7347,
      "stan": 7348,
      "sch": 7349,
      "stre": 7350,
      "sher": 7351,
      "smart": 7352,
      "tos": 7353,
      "tig": 7354,
      "telas": 7355,
      "use": 7356,
      "vara": 7357,
      "veg": 7358,
      "vistas": 7359,
      "vende": 7360,
      "venda": 7361,
      "vitais": 7362,
      "venderam": 7363,
      "venham": 7364,
      "west": 7365,
      "yo": 7366,
      "ziper": 7367,
      "’.": 7368,
      "”.": 7369,
      "##ius": 7370,
      "##irei": 7371,
      "##ner": 7372,
      "##nda": 7373,
      "##ndos": 7374,
      "##gin": 7375,
      "##gina": 7376,
      "##gero": 7377,
      "##gamento": 7378,
      "##gancia": 7379,
      "##ginal": 7380,
      "##ut": 7381,
      "##ubl": 7382,
      "##ugar": 7383,
      "##untos": 7384,
      "##ds": 7385,
      "##dim": 7386,
      "##demos": 7387,
      "##diver": 7388,
      "##of": 7389,
      "##ogo": 7390,
      "##su": 7391,
      "##ser": 7392,
      "##mica": 7393,
      "##tz": 7394,
      "##tida": 7395,
      "##tig": 7396,
      "##tido": 7397,
      "##teira": 7398,
      "##trando": 7399,
      "##ttan": 7400,
      "##tizado": 7401,
      "##tidia": 7402,
      "##fes": 7403,
      "##finhos": 7404,
      "##cei": 7405,
      "##censao": 7406,
      "##remente": 7407,
      "##hi": 7408,
      "##hem": 7409,
      "##hima": 7410,
      "##ee": 7411,
      "##eicao": 7412,
      "##ps": 7413,
      "##pal": 7414,
      "##pil": 7415,
      "##pado": 7416,
      "##pias": 7417,
      "##bor": 7418,
      "##bro": 7419,
      "##bara": 7420,
      "##back": 7421,
      "##band": 7422,
      "##bono": 7423,
      "##vemos": 7424,
      "##vid": 7425,
      "##li": 7426,
      "##lando": 7427,
      "##landia": 7428,
      "##ka": 7429,
      "##kele": 7430,
      "##yn": 7431,
      "##ys": 7432,
      "##yon": 7433,
      "##jando": 7434,
      "##wer": 7435,
      "##well": 7436,
      "##wking": 7437,
      "##30": 7438,
      "##80": 7439,
      "##rad": 7440,
      "##rael": 7441,
      "##raph": 7442,
      "##estru": 7443,
      "##asso": 7444,
      "##asses": 7445,
      "##erem": 7446,
      "##erir": 7447,
      "##ernet": 7448,
      "##eriores": 7449,
      "quinta": 7450,
      "deman": 7451,
      "cou": 7452,
      "coinc": 7453,
      "coxas": 7454,
      "cotidia": 7455,
      "##arem": 7456,
      "##doras": 7457,
      "##oron": 7458,
      "##orfos": 7459,
      "##ian": 7460,
      "##iando": 7461,
      "##entualmente": 7462,
      "umm": 7463,
      "##enu": 7464,
      "##enal": 7465,
      "comemos": 7466,
      "comeram": 7467,
      "comissar": 7468,
      "##iner": 7469,
      "##inamos": 7470,
      "##inidade": 7471,
      "##incao": 7472,
      "##iness": 7473,
      "##inhoes": 7474,
      "##ices": 7475,
      "##icam": 7476,
      "##icil": 7477,
      "##icidas": 7478,
      "##amas": 7479,
      "##amingos": 7480,
      "##alo": 7481,
      "##alog": 7482,
      "sed": 7483,
      "sec": 7484,
      "sequer": 7485,
      "##deter": 7486,
      "##reo": 7487,
      "##real": 7488,
      "##reiros": 7489,
      "##retrovira": 7490,
      "##tono": 7491,
      "##imentando": 7492,
      "embar": 7493,
      "##queca": 7494,
      "##eco": 7495,
      "##ect": 7496,
      "##ecem": 7497,
      "parad": 7498,
      "paramos": 7499,
      "##ocacao": 7500,
      "##ocidio": 7501,
      "##eit": 7502,
      "##eir": 7503,
      "##eil": 7504,
      "nosair": 7505,
      "pon": 7506,
      "matam": 7507,
      "materias": 7508,
      "##ividade": 7509,
      "asse": 7510,
      "ascensao": 7511,
      "##teado": 7512,
      "poros": 7513,
      "portoes": 7514,
      "##ilhas": 7515,
      "##iox": 7516,
      "notou": 7517,
      "estam": 7518,
      "estagio": 7519,
      "mede": 7520,
      "metam": 7521,
      "vocacao": 7522,
      "dada": 7523,
      "david": 7524,
      "condu": 7525,
      "soa": 7526,
      "soma": 7527,
      "sour": 7528,
      "sobra": 7529,
      "napo": 7530,
      "nacionais": 7531,
      "alb": 7532,
      "algas": 7533,
      "alice": 7534,
      "alface": 7535,
      "##saio": 7536,
      "proba": 7537,
      "protec": 7538,
      "proced": 7539,
      "prometa": 7540,
      "##setos": 7541,
      "israel": 7542,
      "entes": 7543,
      "entradas": 7544,
      "entrasse": 7545,
      "ouco": 7546,
      "oucam": 7547,
      "outono": 7548,
      "retro": 7549,
      "redu": 7550,
      "repa": 7551,
      "revol": 7552,
      "regra": 7553,
      "reduz": 7554,
      "reducao": 7555,
      "rebel": 7556,
      "insetos": 7557,
      "sum": 7558,
      "supr": 7559,
      "suporte": 7560,
      "##gol": 7561,
      "tema": 7562,
      "desn": 7563,
      "dest": 7564,
      "deses": 7565,
      "desva": 7566,
      "desord": 7567,
      "desgas": 7568,
      "fatos": 7569,
      "##vacoes": 7570,
      "##mosfera": 7571,
      "top": 7572,
      "tox": 7573,
      "toquei": 7574,
      "exista": 7575,
      "exoes": 7576,
      "extin": 7577,
      "##irretrovira": 7578,
      "estende": 7579,
      "##ulado": 7580,
      "##ulada": 7581,
      "##ulador": 7582,
      "##uldades": 7583,
      "##essou": 7584,
      "anon": 7585,
      "aniver": 7586,
      "##istor": 7587,
      "##istente": 7588,
      "fogu": 7589,
      "##ushima": 7590,
      "ench": 7591,
      "envi": 7592,
      "ensaio": 7593,
      "engol": 7594,
      "caos": 7595,
      "caindo": 7596,
      "cauda": 7597,
      "cadeia": 7598,
      "perse": 7599,
      "perce": 7600,
      "##trar": 7601,
      "eletro": 7602,
      "##umento": 7603,
      "saara": 7604,
      "saib": 7605,
      "##izam": 7606,
      "##tual": 7607,
      "havendo": 7608,
      "hawking": 7609,
      "##pler": 7610,
      "chances": 7611,
      "moran": 7612,
      "motos": 7613,
      "movem": 7614,
      "motivos": 7615,
      "moore": 7616,
      "acei": 7617,
      "acele": 7618,
      "acender": 7619,
      "acidente": 7620,
      "terreo": 7621,
      "traf": 7622,
      "trato": 7623,
      "pares": 7624,
      "parei": 7625,
      "parentes": 7626,
      "pareca": 7627,
      "verdes": 7628,
      "verdades": 7629,
      "##etro": 7630,
      "disco": 7631,
      "dispara": 7632,
      "disputa": 7633,
      "cristo": 7634,
      "criei": 7635,
      "pret": 7636,
      "prev": 7637,
      "prever": 7638,
      "prepar": 7639,
      "precon": 7640,
      "preval": 7641,
      "espelho": 7642,
      "##ionais": 7643,
      "##ograph": 7644,
      "##onides": 7645,
      "##idencias": 7646,
      "assem": 7647,
      "assento": 7648,
      "contando": 7649,
      "contamos": 7650,
      "contudo": 7651,
      "realismo": 7652,
      "realizado": 7653,
      "amp": 7654,
      "forcamos": 7655,
      "intol": 7656,
      "intencao": 7657,
      "intensa": 7658,
      "intestino": 7659,
      "obras": 7660,
      "obed": 7661,
      "elabora": 7662,
      "##iosos": 7663,
      "##iosamente": 7664,
      "##ombus": 7665,
      "comprou": 7666,
      "artic": 7667,
      "resfr": 7668,
      "residencia": 7669,
      "##deste": 7670,
      "##desse": 7671,
      "##tarem": 7672,
      "##endem": 7673,
      "conselho": 7674,
      "conselhos": 7675,
      "consistente": 7676,
      "fazermos": 7677,
      "##ceder": 7678,
      "falhar": 7679,
      "faltando": 7680,
      "falante": 7681,
      "positivas": 7682,
      "positiva": 7683,
      "##toster": 7684,
      "lap": 7685,
      "pego": 7686,
      "pegue": 7687,
      "criam": 7688,
      "criada": 7689,
      "##orno": 7690,
      "##ornos": 7691,
      "tire": 7692,
      "tirando": 7693,
      "pato": 7694,
      "pauta": 7695,
      "pavil": 7696,
      "ond": 7697,
      "escon": 7698,
      "lea": 7699,
      "lego": 7700,
      "levem": 7701,
      "pastor": 7702,
      "##ibr": 7703,
      "abol": 7704,
      "abran": 7705,
      "escul": 7706,
      "escura": 7707,
      "filip": 7708,
      "camada": 7709,
      "cameron": 7710,
      "caminhoes": 7711,
      "dupl": 7712,
      "vinte": 7713,
      "##paz": 7714,
      "verdadeiras": 7715,
      "dialogo": 7716,
      "diabetes": 7717,
      "corrig": 7718,
      "cortina": 7719,
      "simular": 7720,
      "simonides": 7721,
      "nestas": 7722,
      "radia": 7723,
      "interess": 7724,
      "interno": 7725,
      "interval": 7726,
      "interrom": 7727,
      "seguros": 7728,
      "recol": 7729,
      "recado": 7730,
      "recru": 7731,
      "receio": 7732,
      "recurso": 7733,
      "chamados": 7734,
      "medidas": 7735,
      "sentidos": 7736,
      "sentiram": 7737,
      "sentencas": 7738,
      "tornem": 7739,
      "carr": 7740,
      "cargo": 7741,
      "caridade": 7742,
      "cartas": 7743,
      "carbono": 7744,
      "clam": 7745,
      "clip": 7746,
      "clicar": 7747,
      "classes": 7748,
      "maius": 7749,
      "##imados": 7750,
      "fug": 7751,
      "##segundos": 7752,
      "##leao": 7753,
      "##leans": 7754,
      "irr": 7755,
      "iriam": 7756,
      "iriamos": 7757,
      "vagas": 7758,
      "voltou": 7759,
      "volante": 7760,
      "confio": 7761,
      "confiamos": 7762,
      "marginal": 7763,
      "formada": 7764,
      "formadores": 7765,
      "pudemos": 7766,
      "conseguindo": 7767,
      "talento": 7768,
      "talher": 7769,
      "pensado": 7770,
      "penicil": 7771,
      "diretr": 7772,
      "direcion": 7773,
      "pleno": 7774,
      "plena": 7775,
      "plancton": 7776,
      "humanitaria": 7777,
      "encontrando": 7778,
      "bagu": 7779,
      "baterias": 7780,
      "morta": 7781,
      "mortas": 7782,
      "##grada": 7783,
      "##entarios": 7784,
      "atentas": 7785,
      "atmosfera": 7786,
      "##eder": 7787,
      "instr": 7788,
      "inscre": 7789,
      "inscr": 7790,
      "incidente": 7791,
      "jogadas": 7792,
      "fizesse": 7793,
      "##ificam": 7794,
      "veiculo": 7795,
      "mostre": 7796,
      "soube": 7797,
      "aux": 7798,
      "auge": 7799,
      "finas": 7800,
      "olham": 7801,
      "prestig": 7802,
      "visitas": 7803,
      "visuais": 7804,
      "usei": 7805,
      "nuvens": 7806,
      "conhecida": 7807,
      "conhecidos": 7808,
      "transfer": 7809,
      "transistor": 7810,
      "lembrando": 7811,
      "concorda": 7812,
      "concursos": 7813,
      "desenhos": 7814,
      "orc": 7815,
      "orleans": 7816,
      "aprendo": 7817,
      "aprendeu": 7818,
      "acreditei": 7819,
      "funcione": 7820,
      "funcionaria": 7821,
      "funcionamento": 7822,
      "funcionalidade": 7823,
      "haviamos": 7824,
      "refa": 7825,
      "colocam": 7826,
      "significante": 7827,
      "significativo": 7828,
      "mudam": 7829,
      "mudaram": 7830,
      "##ponentes": 7831,
      "construtores": 7832,
      "gratu": 7833,
      "rob": 7834,
      "rotor": 7835,
      "bombar": 7836,
      "ouvem": 7837,
      "indicio": 7838,
      "digna": 7839,
      "fria": 7840,
      "chegava": 7841,
      "ambas": 7842,
      "aglu": 7843,
      "votar": 7844,
      "votacao": 7845,
      "captu": 7846,
      "captar": 7847,
      "pensarmos": 7848,
      "basicas": 7849,
      "gerada": 7850,
      "relogio": 7851,
      "reluz": 7852,
      "##uravel": 7853,
      "futuras": 7854,
      "percebam": 7855,
      "percebido": 7856,
      "valioso": 7857,
      "poderemos": 7858,
      "poderosos": 7859,
      "escolheriam": 7860,
      "precisavam": 7861,
      "invencoes": 7862,
      "editora": 7863,
      "##pete": 7864,
      "##peuta": 7865,
      "confiante": 7866,
      "equacoes": 7867,
      "desenvolve": 7868,
      "desenvolvida": 7869,
      "##minacao": 7870,
      "surgem": 7871,
      "194": 7872,
      "palest": 7873,
      "palacio": 7874,
      "tabu": 7875,
      "trinta": 7876,
      "tridimens": 7877,
      "naquelas": 7878,
      "salario": 7879,
      "salvador": 7880,
      "##inete": 7881,
      "negra": 7882,
      "negar": 7883,
      "subindo": 7884,
      "apartamento": 7885,
      "aparelhos": 7886,
      "apareceram": 7887,
      "tratado": 7888,
      "neura": 7889,
      "tivessemos": 7890,
      "##ulante": 7891,
      "escreve": 7892,
      "gener": 7893,
      "genocidio": 7894,
      "pegava": 7895,
      "tea": 7896,
      "teorias": 7897,
      "acabara": 7898,
      "acabando": 7899,
      "virgin": 7900,
      "supermer": 7901,
      "curt": 7902,
      "curric": 7903,
      "pedia": 7904,
      "pedido": 7905,
      "pedris": 7906,
      "pedisse": 7907,
      "pesquisador": 7908,
      "guia": 7909,
      "espantos": 7910,
      "pensou": 7911,
      "descobriu": 7912,
      "violenta": 7913,
      "exagero": 7914,
      "antigas": 7915,
      "anteriores": 7916,
      "antirretrovira": 7917,
      "cientific": 7918,
      "parecesse": 7919,
      "crescido": 7920,
      "crescentes": 7921,
      "musico": 7922,
      "musculo": 7923,
      "republ": 7924,
      "artigos": 7925,
      "artistica": 7926,
      "fossemos": 7927,
      "sexy": 7928,
      "sexuais": 7929,
      "adora": 7930,
      "empresaria": 7931,
      "bonit": 7932,
      "bondade": 7933,
      "viaja": 7934,
      "viagens": 7935,
      "##geis": 7936,
      "refugiado": 7937,
      "calc": 7938,
      "calcul": 7939,
      "calcada": 7940,
      "eventualmente": 7941,
      "manten": 7942,
      "continuou": 7943,
      "continuava": 7944,
      "acontecera": 7945,
      "possivelmente": 7946,
      "favorita": 7947,
      "corporal": 7948,
      "importava": 7949,
      "regioes": 7950,
      "jogou": 7951,
      "defesa": 7952,
      "defenso": 7953,
      "solidar": 7954,
      "terreno": 7955,
      "territorio": 7956,
      "daquilo": 7957,
      "daquelas": 7958,
      "explicou": 7959,
      "traze": 7960,
      "localizar": 7961,
      "fraude": 7962,
      "frageis": 7963,
      "hong": 7964,
      "honest": 7965,
      "tedtal": 7966,
      "magicos": 7967,
      "maquia": 7968,
      "maquinario": 7969,
      "identifica": 7970,
      "senao": 7971,
      "tomei": 7972,
      "tomou": 7973,
      "tomaram": 7974,
      "controla": 7975,
      "assistiram": 7976,
      "otimos": 7977,
      "discursos": 7978,
      "discrim": 7979,
      "##bollah": 7980,
      "fundamentos": 7981,
      "recebemos": 7982,
      "baseada": 7983,
      "baseadas": 7984,
      "gasta": 7985,
      "tentarmos": 7986,
      "apresentou": 7987,
      "respirar": 7988,
      "2008": 7989,
      "interacao": 7990,
      "##tinos": 7991,
      "##tinador": 7992,
      "carregada": 7993,
      "testamos": 7994,
      "tesouro": 7995,
      "testoster": 7996,
      "relaciona": 7997,
      "relacionadas": 7998,
      "vitorias": 7999
    }
  }
}