{
  "version": "1.0",
  "truncation": null,
  "padding": null,
  "added_tokens": [
    {
      "id": 0,
      "content": "[UNK]",
      "single_word": false,
      "lstrip": false,
      "rstrip": false,
      "normalized": false,
      "special": true
    },
    {
      "id": 1,
      "content": "[CLS]",
      "single_word": false,
      "lstrip": false,
      "rstrip": false,
      "normalized": false,
      "special": true
    },
    {
      "id": 2,
      "content": "[SEP]",
      "single_word": false,
      "lstrip": false,
      "rstrip": false,
      "normalized": false,
      "special": true
    },
    {
      "id": 3,
      "content": "[PAD]",
      "single_word": false,
      "lstrip": false,
      "rstrip": false,
      "normalized": false,
      "special": true
    }
  ],
  "normalizer": {
    "type": "Sequence",
    "normalizers": [
      {
        "type": "NFD"
      },
      {
        "type": "Lowercase"
      },
      {
        "type": "StripAccents"
      }
    ]
  },
  "pre_tokenizer": {
    "type": "Whitespace"
  },
  "post_processor": {
    "type": "TemplateProcessing",
    "single": [
      {
        "SpecialToken": {
          "id": "[CLS]",
          "type_id": 0
        }
      },
      {
        "Sequence": {
          "id": "A",
          "type_id": 0
        }
      },
      {
        "SpecialToken": {
          "id": "[SEP]",
          "type_id": 0
        }
      }
    ],
    "pair": [
      {
        "SpecialToken": {
          "id": "[CLS]",
          "type_id": 0
        }
      },
      {
        "Sequence": {
          "id": "A",
          "type_id": 0
        }
      },
      {
        "SpecialToken": {
          "id": "[SEP]",
          "type_id": 0
        }
      },
      {
        "Sequence": {
          "id": "B",
          "type_id": 1
        }
      },
      {
        "SpecialToken": {
          "id": "[SEP]",
          "type_id": 1
        }
      }
    ],
    "special_tokens": {
      "[CLS]": {
        "id": "[CLS]",
        "ids": [
          1
        ],
        "tokens": [
          "[CLS]"
        ]
      },
      "[SEP]": {
        "id": "[SEP]",
        "ids": [
          2
        ],
        "tokens": [
          "[SEP]"
        ]
      }
    }
  },
  "decoder": {
    "type": "WordPiece",
    "prefix": "##",
    "cleanup": true
  },
  "model": {
    "type": "WordPiece",
    "unk_token": "[UNK]",
    "continuing_subword_prefix": "##",
    "max_input_chars_per_word": 100,
    "vocab": {
      "[UNK]": 0,
      "[CLS]": 1,
      "[SEP]": 2,
      "[PAD]": 3,
      "!": 4,
      "\"": 5,
      "#": 6,
      "$": 7,
      "%": 8,
      "&": 9,
      "'": 10,
      "+": 11,
      ",": 12,
      "-": 13,
      ".": 14,
      "/": 15,
      "0": 16,
      "1": 17,
      "2": 18,
      "3": 19,
      "4": 20,
      "5": 21,
      "6": 22,
      "7": 23,
      "8": 24,
      "9": 25,
      ":": 26,
      ";": 27,
      "=": 28,
      "?": 29,
      "[": 30,
      "]": 31,
      "a": 32,
      "b": 33,
      "c": 34,
      "d": 35,
      "e": 36,
      "f": 37,
      "g": 38,
      "h": 39,
      "i": 40,
      "j": 41,
      "k": 42,
      "l": 43,
      "m": 44,
      "n": 45,
      "o": 46,
      "p": 47,
      "q": 48,
      "r": 49,
      "s": 50,
      "t": 51,
      "u": 52,
      "v": 53,
      "w": 54,
      "x": 55,
      "y": 56,
      "z": 57,
      "²": 58,
      "τ": 59,
      "—": 60,
      "∇": 61,
      "♫": 62,
      "##t": 63,
      "##e": 64,
      "##p": 65,
      "##i": 66,
      "##n": 67,
      "##g": 68,
      "##a": 69,
      "##l": 70,
      "##f": 71,
      "##r": 72,
      "##c": 73,
      "##u": 74,
      "##s": 75,
      "##o": 76,
      "##w": 77,
      "##k": 78,
      "##d": 79,
      "##m": 80,
      "##b": 81,
      "##y": 82,
      "##v": 83,
      "##h": 84,
      "##6": 85,
      "##z": 86,
      "##x": 87,
      "##j": 88,
      "##.": 89,
      "##q": 90,
      "##1": 91,
      "##8": 92,
      "##4": 93,
      "##0": 94,
      "##9": 95,
      "##3": 96,
      "##[": 97,
      "##,": 98,
      "##5": 99,
      "##\"": 100,
      "##7": 101,
      "##2": 102,
      "##-": 103,
      "##?": 104,
      "##—": 105,
      "##'": 106,
      "##τ": 107,
      "##]": 108,
      "##:": 109,
      "th": 110,
      "the": 111,
      "##er": 112,
      "##in": 113,
      "##at": 114,
      "##nd": 115,
      "##ou": 116,
      "##re": 117,
      "##ing": 118,
      "to": 119,
      "and": 120,
      "##en": 121,
      "##on": 122,
      "##es": 123,
      "##an": 124,
      "##or": 125,
      "of": 126,
      "##al": 127,
      "##ed": 128,
      "in": 129,
      "##is": 130,
      "##it": 131,
      "that": 132,
      "##ar": 133,
      "##om": 134,
      "##as": 135,
      "you": 136,
      "we": 137,
      "##le": 138,
      "wh": 139,
      "it": 140,
      "##ic": 141,
      "be": 142,
      "##ow": 143,
      "##ll": 144,
      "##ve": 145,
      "##ut": 146,
      "##ly": 147,
      "re": 148,
      "##ion": 149,
      "##se": 150,
      "##ot": 151,
      "is": 152,
      "##st": 153,
      "##ent": 154,
      "ha": 155,
      "##et": 156,
      "##ld": 157,
      "on": 158,
      "##ct": 159,
      "##ay": 160,
      "this": 161,
      "st": 162,
      "so": 163,
      "##id": 164,
      "##ur": 165,
      "##ig": 166,
      "##ver": 167,
      "##ch": 168,
      "was": 169,
      "for": 170,
      "##am": 171,
      "##ce": 172,
      "li": 173,
      "##ke": 174,
      "##im": 175,
      "##ir": 176,
      "they": 177,
      "##ith": 178,
      "do": 179,
      "##op": 180,
      "an": 181,
      "with": 182,
      "##ol": 183,
      "my": 184,
      "he": 185,
      "are": 186,
      "ab": 187,
      "go": 188,
      "as": 189,
      "##ere": 190,
      "me": 191,
      "##ad": 192,
      "but": 193,
      "have": 194,
      "##th": 195,
      "sh": 196,
      "mo": 197,
      "ne": 198,
      "se": 199,
      "##ht": 200,
      "##ro": 201,
      "##ally": 202,
      "wor": 203,
      "##out": 204,
      "not": 205,
      "what": 206,
      "##ould": 207,
      "ch": 208,
      "##ation": 209,
      "##ter": 210,
      "com": 211,
      "##ra": 212,
      "at": 213,
      "##ant": 214,
      "can": 215,
      "about": 216,
      "som": 217,
      "fr": 218,
      "##ge": 219,
      "##ill": 220,
      "##est": 221,
      "con": 222,
      "##il": 223,
      "##ear": 224,
      "##ers": 225,
      "##ust": 226,
      "ex": 227,
      "all": 228,
      "##ight": 229,
      "##ul": 230,
      "##oo": 231,
      "like": 232,
      "pe": 233,
      "##ess": 234,
      "##ity": 235,
      "##ac": 236,
      "there": 237,
      "one": 238,
      "de": 239,
      "##ure": 240,
      "##au": 241,
      "--": 242,
      "##pp": 243,
      "or": 244,
      "##ist": 245,
      "our": 246,
      "bec": 247,
      "##ople": 248,
      "people": 249,
      "##art": 250,
      "al": 251,
      "pro": 252,
      "##ies": 253,
      "ma": 254,
      "##ie": 255,
      "tr": 256,
      "##if": 257,
      "##ate": 258,
      "##um": 259,
      "##ble": 260,
      "us": 261,
      "kn": 262,
      "##all": 263,
      "if": 264,
      "out": 265,
      "##os": 266,
      "##em": 267,
      "##ive": 268,
      "when": 269,
      "pl": 270,
      "##king": 271,
      "##ect": 272,
      "from": 273,
      "who": 274,
      "##un": 275,
      "en": 276,
      "sp": 277,
      "te": 278,
      "now": 279,
      "##ci": 280,
      "##ause": 281,
      "had": 282,
      "##ind": 283,
      "them": 284,
      "these": 285,
      "tim": 286,
      "how": 287,
      "because": 288,
      "just": 289,
      "##el": 290,
      "thin": 291,
      "##her": 292,
      "##rou": 293,
      "year": 294,
      "know": 295,
      "your": 296,
      "by": 297,
      "some": 298,
      "##od": 299,
      "ever": 300,
      "##ery": 301,
      "up": 302,
      "thing": 303,
      "##one": 304,
      "##ain": 305,
      "su": 306,
      "would": 307,
      "get": 308,
      "##ort": 309,
      "want": 310,
      "int": 311,
      "more": 312,
      "##ine": 313,
      "##ame": 314,
      "##iv": 315,
      "very": 316,
      "im": 317,
      "##ment": 318,
      "were": 319,
      "than": 320,
      "going": 321,
      "##og": 322,
      "##hing": 323,
      "time": 324,
      "##ous": 325,
      "think": 326,
      "sa": 327,
      "##ence": 328,
      "##ack": 329,
      "##ard": 330,
      "##and": 331,
      "##ap": 332,
      "world": 333,
      "their": 334,
      "every": 335,
      "act": 336,
      "##ast": 337,
      "##us": 338,
      "ta": 339,
      "##iz": 340,
      "don": 341,
      "see": 342,
      ".\"": 343,
      "un": 344,
      "fe": 345,
      "##ag": 346,
      "##are": 347,
      "ve": 348,
      "##ook": 349,
      "##reat": 350,
      "ev": 351,
      "##ose": 352,
      "comp": 353,
      "##fer": 354,
      "could": 355,
      "she": 356,
      "##ans": 357,
      "exp": 358,
      "##ually": 359,
      "man": 360,
      "has": 361,
      "really": 362,
      "##ore": 363,
      "qu": 364,
      "am": 365,
      "no": 366,
      "##ide": 367,
      "ag": 368,
      "will": 369,
      "##act": 370,
      "##our": 371,
      "years": 372,
      "le": 373,
      "##fe": 374,
      "somet": 375,
      "here": 376,
      "##gh": 377,
      "cl": 378,
      "did": 379,
      "##ich": 380,
      "way": 381,
      "then": 382,
      "##ild": 383,
      "oth": 384,
      "tw": 385,
      "work": 386,
      "##res": 387,
      "been": 388,
      "where": 389,
      "into": 390,
      "##ab": 391,
      "##ong": 392,
      "new": 393,
      "dif": 394,
      "##ace": 395,
      "##ud": 396,
      "##ions": 397,
      "ph": 398,
      "lo": 399,
      "need": 400,
      "over": 401,
      "start": 402,
      "actually": 403,
      "dis": 404,
      "per": 405,
      "##nder": 406,
      "other": 407,
      "##itt": 408,
      "happ": 409,
      "pr": 410,
      "say": 411,
      "##ical": 412,
      "fir": 413,
      "real": 414,
      "##ory": 415,
      "any": 416,
      "first": 417,
      "right": 418,
      "which": 419,
      "things": 420,
      "##ber": 421,
      "##nt": 422,
      "life": 423,
      "her": 424,
      "##ree": 425,
      "##ip": 426,
      "##ght": 427,
      "##age": 428,
      "af": 429,
      "look": 430,
      "##ice": 431,
      "mu": 432,
      "##ach": 433,
      "id": 434,
      "make": 435,
      "##ck": 436,
      "something": 437,
      "##orm": 438,
      "##ult": 439,
      "call": 440,
      "co": 441,
      "back": 442,
      "differ": 443,
      "tal": 444,
      "ar": 445,
      "##own": 446,
      "two": 447,
      "bu": 448,
      "po": 449,
      "part": 450,
      "##pt": 451,
      "those": 452,
      "bet": 453,
      "day": 454,
      "##ea": 455,
      "##00": 456,
      "##ound": 457,
      "much": 458,
      "##able": 459,
      "##qu": 460,
      "res": 461,
      "ad": 462,
      "##lf": 463,
      "##olog": 464,
      "most": 465,
      "his": 466,
      "inter": 467,
      "well": 468,
      "chan": 469,
      "##ire": 470,
      "##ass": 471,
      "##eri": 472,
      "##so": 473,
      "even": 474,
      "##ome": 475,
      "said": 476,
      "##ite": 477,
      "take": 478,
      "##ry": 479,
      "got": 480,
      "##round": 481,
      "##ri": 482,
      "##ves": 483,
      "##ving": 484,
      "does": 485,
      "##ood": 486,
      "##ens": 487,
      "comm": 488,
      "##way": 489,
      "##ade": 490,
      "##ated": 491,
      "imp": 492,
      "##ish": 493,
      "kind": 494,
      "also": 495,
      "under": 496,
      "different": 497,
      "litt": 498,
      "little": 499,
      "##day": 500,
      "ac": 501,
      "##ep": 502,
      "##ff": 503,
      "##ru": 504,
      "gr": 505,
      "lot": 506,
      "##ple": 507,
      "##cess": 508,
      "cont": 509,
      "only": 510,
      "tell": 511,
      "##get": 512,
      "why": 513,
      "spe": 514,
      "let": 515,
      "sc": 516,
      "br": 517,
      "bl": 518,
      "ro": 519,
      "##int": 520,
      "em": 521,
      "des": 522,
      "##other": 523,
      "cou": 524,
      "##ase": 525,
      "hum": 526,
      "##ick": 527,
      "##nds": 528,
      "pre": 529,
      "sy": 530,
      "##ys": 531,
      "rem": 532,
      "##ign": 533,
      "##vel": 534,
      "around": 535,
      "##ations": 536,
      "##ody": 537,
      "col": 538,
      "come": 539,
      "many": 540,
      "same": 541,
      "##ary": 542,
      "##form": 543,
      "today": 544,
      "##ict": 545,
      "hel": 546,
      "good": 547,
      "bra": 548,
      "down": 549,
      "##ater": 550,
      "##xt": 551,
      "too": 552,
      "##cent": 553,
      "thank": 554,
      "bo": 555,
      "thou": 556,
      "may": 557,
      "ins": 558,
      "##ents": 559,
      "##rough": 560,
      "##ors": 561,
      "cons": 562,
      "help": 563,
      "wom": 564,
      "##ning": 565,
      "##co": 566,
      "quest": 567,
      "pers": 568,
      "##ities": 569,
      "##ily": 570,
      "play": 571,
      "big": 572,
      "wr": 573,
      "##wn": 574,
      "through": 575,
      "ask": 576,
      "build": 577,
      "again": 578,
      "fam": 579,
      "##ue": 580,
      "being": 581,
      "try": 582,
      "talk": 583,
      "##ms": 584,
      "imag": 585,
      "##ved": 586,
      "tech": 587,
      "##les": 588,
      "##ject": 589,
      "after": 590,
      "##lect": 591,
      "##ower": 592,
      "##ath": 593,
      "techn": 594,
      "##ren": 595,
      "app": 596,
      "made": 597,
      "##du": 598,
      "##thing": 599,
      "happen": 600,
      "put": 601,
      "three": 602,
      "##self": 603,
      "show": 604,
      "never": 605,
      "idea": 606,
      "tra": 607,
      "##ty": 608,
      "dec": 609,
      "proble": 610,
      "inc": 611,
      "##illion": 612,
      "##ress": 613,
      "##ph": 614,
      "##ile": 615,
      "##we": 616,
      "##enc": 617,
      "##vers": 618,
      "human": 619,
      "##ting": 620,
      "commun": 621,
      "creat": 622,
      "dr": 623,
      "##te": 624,
      "?\"": 625,
      "sm": 626,
      "##ful": 627,
      "##ology": 628,
      "##ia": 629,
      "##urn": 630,
      "didn": 631,
      "person": 632,
      "gu": 633,
      "great": 634,
      "##ible": 635,
      "##ak": 636,
      "##ob": 637,
      "bel": 638,
      "doing": 639,
      "next": 640,
      "##ness": 641,
      "called": 642,
      "##und": 643,
      "##ual": 644,
      "better": 645,
      "##fore": 646,
      "##ert": 647,
      "##oss": 648,
      "op": 649,
      "toget": 650,
      "##ark": 651,
      "stud": 652,
      "together": 653,
      "##ance": 654,
      "fact": 655,
      "##ds": 656,
      "ind": 657,
      "sci": 658,
      "##ial": 659,
      "story": 660,
      "feel": 661,
      "lear": 662,
      "own": 663,
      "##ell": 664,
      "thought": 665,
      "might": 666,
      "ob": 667,
      "sch": 668,
      "ter": 669,
      "off": 670,
      "inst": 671,
      "before": 672,
      "##cial": 673,
      "##ize": 674,
      "few": 675,
      "sim": 676,
      "him": 677,
      "sur": 678,
      "##ics": 679,
      "fl": 680,
      "kid": 681,
      "use": 682,
      "##body": 683,
      "long": 684,
      "inv": 685,
      "experi": 686,
      "count": 687,
      "end": 688,
      "##ution": 689,
      "##ope": 690,
      "mem": 691,
      "##ieve": 692,
      "mat": 693,
      "##igh": 694,
      "child": 695,
      "##ility": 696,
      "plan": 697,
      "started": 698,
      "##ating": 699,
      "##ates": 700,
      "##stem": 701,
      "##ures": 702,
      "##pl": 703,
      "20": 704,
      "##be": 705,
      "##ition": 706,
      "love": 707,
      "underst": 708,
      "##ines": 709,
      "##ord": 710,
      "should": 711,
      "##ists": 712,
      "gen": 713,
      "ho": 714,
      "mon": 715,
      "##ool": 716,
      "##ism": 717,
      ",\"": 718,
      "##ix": 719,
      "system": 720,
      "old": 721,
      "##ied": 722,
      "##ail": 723,
      "percent": 724,
      "ke": 725,
      "doesn": 726,
      "remem": 727,
      "far": 728,
      "##erg": 729,
      "##ang": 730,
      "##ars": 731,
      "frie": 732,
      "ago": 733,
      "find": 734,
      "school": 735,
      "came": 736,
      "fo": 737,
      "still": 738,
      "ent": 739,
      "phot": 740,
      "remember": 741,
      "found": 742,
      "turn": 743,
      "last": 744,
      "##av": 745,
      "##ft": 746,
      "rel": 747,
      "building": 748,
      "ear": 749,
      "each": 750,
      "med": 751,
      "pat": 752,
      "mean": 753,
      "exam": 754,
      "import": 755,
      "question": 756,
      "point": 757,
      "bas": 758,
      "sl": 759,
      "##ib": 760,
      "##ital": 761,
      "family": 762,
      "learn": 763,
      "##kes": 764,
      "##cept": 765,
      "betwe": 766,
      "between": 767,
      "mom": 768,
      "##fu": 769,
      "power": 770,
      "went": 771,
      "##ise": 772,
      "its": 773,
      "rec": 774,
      "important": 775,
      "city": 776,
      "##ead": 777,
      "another": 778,
      "understand": 779,
      "##ave": 780,
      "##led": 781,
      "##ks": 782,
      "used": 783,
      "cr": 784,
      "interest": 785,
      "pol": 786,
      "##ian": 787,
      "inform": 788,
      "able": 789,
      "##ized": 790,
      "chang": 791,
      "gam": 792,
      "pu": 793,
      "##az": 794,
      "##ather": 795,
      "##alth": 796,
      "place": 797,
      "change": 798,
      "##ways": 799,
      "##ruct": 800,
      "##ons": 801,
      "##oth": 802,
      "cre": 803,
      "brain": 804,
      "10": 805,
      "cap": 806,
      "gl": 807,
      "##pe": 808,
      "##ner": 809,
      "always": 810,
      "women": 811,
      "technology": 812,
      "problem": 813,
      "##ories": 814,
      "##ically": 815,
      "trans": 816,
      "times": 817,
      "fut": 818,
      "nat": 819,
      "num": 820,
      "##ward": 821,
      "##iness": 822,
      "##ular": 823,
      "eng": 824,
      "gra": 825,
      "give": 826,
      "##lic": 827,
      "sol": 828,
      "live": 829,
      "design": 830,
      "believe": 831,
      "bit": 832,
      "##ss": 833,
      "##ough": 834,
      "##als": 835,
      "gover": 836,
      "means": 837,
      "cour": 838,
      "hard": 839,
      "poss": 840,
      "19": 841,
      "fin": 842,
      "wal": 843,
      "##ices": 844,
      "head": 845,
      "comple": 846,
      "information": 847,
      "govern": 848,
      "cam": 849,
      "ll": 850,
      "##gan": 851,
      "##mo": 852,
      "health": 853,
      "cho": 854,
      "small": 855,
      "##ense": 856,
      "read": 857,
      "str": 858,
      "seco": 859,
      "att": 860,
      "thinking": 861,
      "care": 862,
      "##ited": 863,
      "wanted": 864,
      "000": 865,
      "home": 866,
      "##ew": 867,
      "##ious": 868,
      "trying": 869,
      "future": 870,
      "eff": 871,
      "fem": 872,
      "less": 873,
      "met": 874,
      "sk": 875,
      "##per": 876,
      "##lves": 877,
      "##fect": 878,
      "wee": 879,
      "conf": 880,
      "##aught": 881,
      "someone": 882,
      "kids": 883,
      "example": 884,
      "government": 885,
      "car": 886,
      "gir": 887,
      "high": 888,
      "water": 889,
      "##hip": 890,
      "##read": 891,
      "self": 892,
      "light": 893,
      "##ale": 894,
      "ext": 895,
      "everything": 896,
      "expl": 897,
      "cent": 898,
      "##ric": 899,
      "##eric": 900,
      "four": 901,
      "##ng": 902,
      "rep": 903,
      "grow": 904,
      "maybe": 905,
      "away": 906,
      "##gr": 907,
      "##olution": 908,
      "##pport": 909,
      "##cious": 910,
      "sing": 911,
      "##aw": 912,
      "##ative": 913,
      "hand": 914,
      "trust": 915,
      "americ": 916,
      "partic": 917,
      "sound": 918,
      "##ier": 919,
      "##ork": 920,
      "##selves": 921,
      "##ational": 922,
      "open": 923,
      "friends": 924,
      "second": 925,
      "best": 926,
      "done": 927,
      "hope": 928,
      "pres": 929,
      "##red": 930,
      "young": 931,
      "art": 932,
      "##ced": 933,
      "##vie": 934,
      "become": 935,
      "inside": 936,
      "conscious": 937,
      "create": 938,
      "girl": 939,
      "aut": 940,
      "food": 941,
      "##erv": 942,
      "lives": 943,
      "mag": 944,
      "##velop": 945,
      "mind": 946,
      "pass": 947,
      "##air": 948,
      "##ute": 949,
      "stu": 950,
      "##ooking": 951,
      "talking": 952,
      "happened": 953,
      "cle": 954,
      "fish": 955,
      "giv": 956,
      "without": 957,
      "nothing": 958,
      "char": 959,
      "develop": 960,
      "produ": 961,
      "eas": 962,
      "looking": 963,
      "sin": 964,
      "##ten": 965,
      "whole": 966,
      "getting": 967,
      "asked": 968,
      "min": 969,
      "##ps": 970,
      "##line": 971,
      "##allen": 972,
      "took": 973,
      "science": 974,
      "five": 975,
      "job": 976,
      "reas": 977,
      "##imes": 978,
      "challen": 979,
      "process": 980,
      "compan": 981,
      "phys": 982,
      "resp": 983,
      "billion": 984,
      "night": 985,
      "##ont": 986,
      "beh": 987,
      "##ote": 988,
      "##ets": 989,
      "experience": 990,
      "children": 991,
      "cur": 992,
      "##ream": 993,
      "##ety": 994,
      "##ction": 995,
      "seem": 996,
      "##ately": 997,
      "suc": 998,
      "sub": 999,
      "month": 1000,
      "number": 1001,
      "##sw": 1002,
      "##orth": 1003,
      "answ": 1004,
      "##ific": 1005,
      "country": 1006,
      "since": 1007,
      "million": 1008,
      "sort": 1009,
      "sense": 1010,
      "##gin": 1011,
      "##atch": 1012,
      "##orn": 1013,
      "env": 1014,
      "room": 1015,
      "later": 1016,
      "mus": 1017,
      "set": 1018,
      "##ention": 1019,
      "##uring": 1020,
      "move": 1021,
      "##els": 1022,
      "such": 1023,
      "pati": 1024,
      "course": 1025,
      "run": 1026,
      "vi": 1027,
      "wa": 1028,
      "##eas": 1029,
      "##con": 1030,
      "refu": 1031,
      "stand": 1032,
      "myself": 1033,
      "games": 1034,
      "##most": 1035,
      "dig": 1036,
      "fun": 1037,
      "hund": 1038,
      "##ces": 1039,
      "##ined": 1040,
      "##onment": 1041,
      "project": 1042,
      "energ": 1043,
      "unt": 1044,
      "anything": 1045,
      "community": 1046,
      "instead": 1047,
      "dat": 1048,
      "grou": 1049,
      "list": 1050,
      "##nect": 1051,
      "##iss": 1052,
      "##ironment": 1053,
      "share": 1054,
      "mod": 1055,
      "saw": 1056,
      "uni": 1057,
      "sometimes": 1058,
      "woman": 1059,
      "pub": 1060,
      "environment": 1061,
      "bad": 1062,
      "##ock": 1063,
      "##ven": 1064,
      "told": 1065,
      "states": 1066,
      "almost": 1067,
      "knew": 1068,
      "plant": 1069,
      "team": 1070,
      "teach": 1071,
      "comput": 1072,
      "##ences": 1073,
      "consciousness": 1074,
      "refuge": 1075,
      "war": 1076,
      "living": 1077,
      "working": 1078,
      "##ract": 1079,
      "using": 1080,
      "amaz": 1081,
      "arch": 1082,
      "energy": 1083,
      "data": 1084,
      "cra": 1085,
      "di": 1086,
      "fu": 1087,
      "game": 1088,
      "hal": 1089,
      "ty": 1090,
      "vis": 1091,
      "##ount": 1092,
      "soci": 1093,
      "##ural": 1094,
      "##ross": 1095,
      "##aces": 1096,
      "##istic": 1097,
      "making": 1098,
      "##ogra": 1099,
      "left": 1100,
      "acc": 1101,
      "imagine": 1102,
      "success": 1103,
      "book": 1104,
      "cert": 1105,
      "cell": 1106,
      "vo": 1107,
      "##ne": 1108,
      "##lly": 1109,
      "##ential": 1110,
      "having": 1111,
      "step": 1112,
      "##arent": 1113,
      "lead": 1114,
      "reality": 1115,
      "single": 1116,
      "dist": 1117,
      "hour": 1118,
      "pict": 1119,
      "##ever": 1120,
      "##wh": 1121,
      "##outh": 1122,
      "while": 1123,
      "begin": 1124,
      "##ows": 1125,
      "wasn": 1126,
      "coming": 1127,
      "convers": 1128,
      "##oney": 1129,
      "disab": 1130,
      "gener": 1131,
      "viol": 1132,
      "cor": 1133,
      "case": 1134,
      "mid": 1135,
      "past": 1136,
      "##io": 1137,
      "##iting": 1138,
      "social": 1139,
      "##ird": 1140,
      "##ters": 1141,
      "simple": 1142,
      "interesting": 1143,
      "answer": 1144,
      "bro": 1145,
      "both": 1146,
      "men": 1147,
      "ok": 1148,
      "par": 1149,
      "##ues": 1150,
      "##aring": 1151,
      "words": 1152,
      "connect": 1153,
      "polit": 1154,
      "effect": 1155,
      "until": 1156,
      "hist": 1157,
      "money": 1158,
      "six": 1159,
      "test": 1160,
      "struct": 1161,
      "enough": 1162,
      "loc": 1163,
      "scient": 1164,
      "half": 1165,
      "el": 1166,
      "val": 1167,
      "##aut": 1168,
      "##man": 1169,
      "##itect": 1170,
      "movie": 1171,
      "##earch": 1172,
      "##osed": 1173,
      "##ivid": 1174,
      "close": 1175,
      "##ably": 1176,
      "research": 1177,
      "pret": 1178,
      "farm": 1179,
      "learned": 1180,
      "moment": 1181,
      "reason": 1182,
      "amazing": 1183,
      "bus": 1184,
      "dream": 1185,
      "face": 1186,
      "free": 1187,
      "fund": 1188,
      "gre": 1189,
      "mar": 1190,
      "ris": 1191,
      "vir": 1192,
      "##den": 1193,
      "choo": 1194,
      "prof": 1195,
      "space": 1196,
      "##ands": 1197,
      "against": 1198,
      "study": 1199,
      "pretty": 1200,
      "cult": 1201,
      "pop": 1202,
      "sure": 1203,
      "##gg": 1204,
      "##less": 1205,
      "##cy": 1206,
      "##cle": 1207,
      "top": 1208,
      "stop": 1209,
      "che": 1210,
      "mach": 1211,
      "memory": 1212,
      "architect": 1213,
      "jo": 1214,
      "side": 1215,
      "ted": 1216,
      "vide": 1217,
      "wo": 1218,
      "##eal": 1219,
      "##cr": 1220,
      "##ality": 1221,
      "##itive": 1222,
      "organ": 1223,
      "ways": 1224,
      "happens": 1225,
      "says": 1226,
      "looked": 1227,
      "contr": 1228,
      "wrong": 1229,
      "planet": 1230,
      "walk": 1231,
      "##ograph": 1232,
      "body": 1233,
      "dire": 1234,
      "york": 1235,
      "beaut": 1236,
      "makes": 1237,
      "spec": 1238,
      "special": 1239,
      "bring": 1240,
      "possible": 1241,
      "lar": 1242,
      "mot": 1243,
      "win": 1244,
      "yet": 1245,
      "##no": 1246,
      "##ination": 1247,
      "isn": 1248,
      "prot": 1249,
      "days": 1250,
      "colle": 1251,
      "problems": 1252,
      "object": 1253,
      "hold": 1254,
      "keep": 1255,
      "entire": 1256,
      "femin": 1257,
      "ey": 1258,
      "fil": 1259,
      "pie": 1260,
      "sit": 1261,
      "treat": 1262,
      "vac": 1263,
      "vie": 1264,
      "watch": 1265,
      "##ger": 1266,
      "##fic": 1267,
      "##ries": 1268,
      "##llow": 1269,
      "heard": 1270,
      "##tern": 1271,
      "everyone": 1272,
      "months": 1273,
      "listen": 1274,
      "certain": 1275,
      "view": 1276,
      "mother": 1277,
      "##zy": 1278,
      "often": 1279,
      "##ident": 1280,
      "meas": 1281,
      "seen": 1282,
      "ord": 1283,
      "prob": 1284,
      "across": 1285,
      "insp": 1286,
      "earth": 1287,
      "engine": 1288,
      "econ": 1289,
      "parent": 1290,
      "##ipp": 1291,
      "##net": 1292,
      "##ling": 1293,
      "##ond": 1294,
      "##he": 1295,
      "##let": 1296,
      "##ental": 1297,
      "online": 1298,
      "comes": 1299,
      "spea": 1300,
      "somebody": 1301,
      "class": 1302,
      "spend": 1303,
      "questions": 1304,
      "relations": 1305,
      "complete": 1306,
      "music": 1307,
      "econom": 1308,
      "ep": 1309,
      "sil": 1310,
      "tre": 1311,
      "##ake": 1312,
      "##med": 1313,
      "##reak": 1314,
      "evolution": 1315,
      "ident": 1316,
      "##ired": 1317,
      "##rib": 1318,
      "individ": 1319,
      "##gram": 1320,
      "elect": 1321,
      "father": 1322,
      "lab": 1323,
      "north": 1324,
      "opport": 1325,
      "red": 1326,
      "##ped": 1327,
      "##br": 1328,
      "##ouse": 1329,
      "##its": 1330,
      "##iter": 1331,
      "##omes": 1332,
      "##aster": 1333,
      "within": 1334,
      "sex": 1335,
      "front": 1336,
      "program": 1337,
      "##ives": 1338,
      "##ments": 1339,
      "feed": 1340,
      "adv": 1341,
      "collect": 1342,
      "choice": 1343,
      "week": 1344,
      "refugees": 1345,
      "wonder": 1346,
      "direct": 1347,
      "relationship": 1348,
      "individual": 1349,
      "opportun": 1350,
      "200": 1351,
      "age": 1352,
      "det": 1353,
      "es": 1354,
      "mult": 1355,
      "norm": 1356,
      "sw": 1357,
      "sign": 1358,
      "south": 1359,
      "##side": 1360,
      "thous": 1361,
      "##ining": 1362,
      "once": 1363,
      "stories": 1364,
      "doll": 1365,
      "ass": 1366,
      "##ilities": 1367,
      "deep": 1368,
      "death": 1369,
      "alread": 1370,
      "##aps": 1371,
      "taking": 1372,
      "box": 1373,
      "incl": 1374,
      "stuff": 1375,
      "digital": 1376,
      "probably": 1377,
      "already": 1378,
      "daught": 1379,
      "serv": 1380,
      "yes": 1381,
      "##ug": 1382,
      "##ings": 1383,
      "reg": 1384,
      "##ided": 1385,
      "goes": 1386,
      "meet": 1387,
      "##ield": 1388,
      "level": 1389,
      "works": 1390,
      "##versity": 1391,
      "created": 1392,
      "guy": 1393,
      "students": 1394,
      "finally": 1395,
      "okay": 1396,
      "..": 1397,
      "aw": 1398,
      "air": 1399,
      "during": 1400,
      "fig": 1401,
      "ge": 1402,
      "hon": 1403,
      "kill": 1404,
      "mor": 1405,
      "##li": 1406,
      "##cer": 1407,
      "##ken": 1408,
      "##0s": 1409,
      "##ins": 1410,
      "##ash": 1411,
      "ret": 1412,
      "hands": 1413,
      "form": 1414,
      "anim": 1415,
      "word": 1416,
      "true": 1417,
      "intell": 1418,
      "seeing": 1419,
      "worked": 1420,
      "diffic": 1421,
      "realized": 1422,
      "ideas": 1423,
      "history": 1424,
      "intellig": 1425,
      "difficult": 1426,
      "15": 1427,
      "av": 1428,
      "bi": 1429,
      "fre": 1430,
      "wind": 1431,
      "##pr": 1432,
      "##pect": 1433,
      "##ians": 1434,
      "##fort": 1435,
      "##cre": 1436,
      "##ator": 1437,
      "tool": 1438,
      "##ank": 1439,
      "##omet": 1440,
      "##urs": 1441,
      "sever": 1442,
      "##ured": 1443,
      "##aper": 1444,
      "united": 1445,
      "quite": 1446,
      "playing": 1447,
      "incre": 1448,
      "grand": 1449,
      "particular": 1450,
      "public": 1451,
      "society": 1452,
      "...": 1453,
      "kore": 1454,
      "oh": 1455,
      "sens": 1456,
      "##dle": 1457,
      "##ision": 1458,
      "##ether": 1459,
      "abs": 1460,
      "dead": 1461,
      "##elt": 1462,
      "prop": 1463,
      "add": 1464,
      "changes": 1465,
      "crazy": 1466,
      "business": 1467,
      "parents": 1468,
      "dru": 1469,
      "equ": 1470,
      "felt": 1471,
      "hu": 1472,
      "opt": 1473,
      "ra": 1474,
      "##end": 1475,
      "##oc": 1476,
      "near": 1477,
      "along": 1478,
      "places": 1479,
      "everybody": 1480,
      "phone": 1481,
      "images": 1482,
      "communic": 1483,
      "matter": 1484,
      "nature": 1485,
      "easy": 1486,
      "picture": 1487,
      "edu": 1488,
      "ur": 1489,
      "##uck": 1490,
      "##imate": 1491,
      "exist": 1492,
      "dem": 1493,
      "ourselves": 1494,
      "alone": 1495,
      "super": 1496,
      "##ogn": 1497,
      "##itting": 1498,
      "kinds": 1499,
      "##avor": 1500,
      "control": 1501,
      "piece": 1502,
      "dra": 1503,
      "gave": 1504,
      "law": 1505,
      "mark": 1506,
      "pain": 1507,
      "rest": 1508,
      "##ying": 1509,
      "##reds": 1510,
      "##ented": 1511,
      "##ime": 1512,
      "short": 1513,
      "concept": 1514,
      "allow": 1515,
      "image": 1516,
      "##ished": 1517,
      "lots": 1518,
      "black": 1519,
      "road": 1520,
      "though": 1521,
      "countries": 1522,
      "materi": 1523,
      "follow": 1524,
      "camer": 1525,
      "charact": 1526,
      "challeng": 1527,
      "company": 1528,
      "hundreds": 1529,
      "typ": 1530,
      "middle": 1531,
      "culture": 1532,
      "order": 1533,
      "educ": 1534,
      "30": 1535,
      "name": 1536,
      "oce": 1537,
      "pot": 1538,
      "sum": 1539,
      "##row": 1540,
      "##bers": 1541,
      "##ange": 1542,
      "##utes": 1543,
      "##amed": 1544,
      "shap": 1545,
      "const": 1546,
      "##ilt": 1547,
      "themselves": 1548,
      "supp": 1549,
      "takes": 1550,
      "##ization": 1551,
      "##ared": 1552,
      "access": 1553,
      "brand": 1554,
      "turned": 1555,
      "behind": 1556,
      "patients": 1557,
      "##where": 1558,
      "conversation": 1559,
      "violence": 1560,
      "else": 1561,
      "fundam": 1562,
      "video": 1563,
      "ap": 1564,
      "ach": 1565,
      "favor": 1566,
      "house": 1567,
      "jeal": 1568,
      "mist": 1569,
      "ple": 1570,
      "rad": 1571,
      "yea": 1572,
      "##ny": 1573,
      "##gs": 1574,
      "##gress": 1575,
      "##iny": 1576,
      "offer": 1577,
      "recent": 1578,
      "exc": 1579,
      "exact": 1580,
      "##ulation": 1581,
      "least": 1582,
      "happiness": 1583,
      "boy": 1584,
      "decided": 1585,
      "drop": 1586,
      "term": 1587,
      "photograph": 1588,
      "based": 1589,
      "choices": 1590,
      "extra": 1591,
      "physical": 1592,
      "local": 1593,
      "dollars": 1594,
      "daughter": 1595,
      "jealous": 1596,
      "yeah": 1597,
      "fore": 1598,
      "jud": 1599,
      "must": 1600,
      "pay": 1601,
      "pos": 1602,
      "##ns": 1603,
      "##cc": 1604,
      "##cus": 1605,
      "##haps": 1606,
      "##uth": 1607,
      "##ional": 1608,
      "##ider": 1609,
      "door": 1610,
      "heart": 1611,
      "##ived": 1612,
      "leave": 1613,
      "news": 1614,
      "perhaps": 1615,
      "afric": 1616,
      "cost": 1617,
      "common": 1618,
      "emb": 1619,
      "changed": 1620,
      "possib": 1621,
      "explain": 1622,
      "choose": 1623,
      "bur": 1624,
      "break": 1625,
      "field": 1626,
      "pick": 1627,
      "##gest": 1628,
      "##oy": 1629,
      "##inary": 1630,
      "##ouch": 1631,
      "tom": 1632,
      "##ones": 1633,
      "##ott": 1634,
      "##ster": 1635,
      "def": 1636,
      "prov": 1637,
      "truth": 1638,
      "quick": 1639,
      "needed": 1640,
      "coll": 1641,
      "##que": 1642,
      "##cover": 1643,
      "guys": 1644,
      "natural": 1645,
      "complex": 1646,
      "america": 1647,
      "given": 1648,
      "group": 1649,
      "machine": 1650,
      "beautif": 1651,
      "several": 1652,
      "aver": 1653,
      "dom": 1654,
      "fail": 1655,
      "mil": 1656,
      "##ply": 1657,
      "##ior": 1658,
      "##cing": 1659,
      "##vious": 1660,
      "##ink": 1661,
      "##oun": 1662,
      "whether": 1663,
      "stre": 1664,
      "state": 1665,
      "doct": 1666,
      "hear": 1667,
      "became": 1668,
      "outside": 1669,
      "couple": 1670,
      "terr": 1671,
      "terms": 1672,
      "simply": 1673,
      "friend": 1674,
      "turns": 1675,
      "weeks": 1676,
      "autism": 1677,
      "voice": 1678,
      "hours": 1679,
      "film": 1680,
      "100": 1681,
      "aug": 1682,
      "bod": 1683,
      "cas": 1684,
      "eur": 1685,
      "fight": 1686,
      "fall": 1687,
      "jour": 1688,
      "land": 1689,
      "sent": 1690,
      "##ych": 1691,
      "##head": 1692,
      "##ene": 1693,
      "inno": 1694,
      "ref": 1695,
      "##verty": 1696,
      "god": 1697,
      "moving": 1698,
      "support": 1699,
      "gets": 1700,
      "##ivity": 1701,
      "##izing": 1702,
      "##ages": 1703,
      "event": 1704,
      "happy": 1705,
      "saying": 1706,
      "difference": 1707,
      "built": 1708,
      "color": 1709,
      "communities": 1710,
      "surv": 1711,
      "experienc": 1712,
      "completely": 1713,
      "opportunity": 1714,
      "average": 1715,
      "50": 1716,
      "line": 1717,
      "lang": 1718,
      "mess": 1719,
      "wall": 1720,
      "##ts": 1721,
      "##uation": 1722,
      "##mb": 1723,
      "bey": 1724,
      "stay": 1725,
      "##ides": 1726,
      "##idge": 1727,
      "##idence": 1728,
      "##ury": 1729,
      "chr": 1730,
      "##ateg": 1731,
      "##unch": 1732,
      "##rought": 1733,
      "suf": 1734,
      "compet": 1735,
      "needs": 1736,
      "perfect": 1737,
      "poverty": 1738,
      "contin": 1739,
      "rob": 1740,
      "emerg": 1741,
      "media": 1742,
      "glob": 1743,
      "minutes": 1744,
      "companies": 1745,
      "includ": 1746,
      "cal": 1747,
      "card": 1748,
      "non": 1749,
      "sun": 1750,
      "##com": 1751,
      "##mer": 1752,
      "##mit": 1753,
      "##oud": 1754,
      "##rep": 1755,
      "tot": 1756,
      "##ised": 1757,
      "##arch": 1758,
      "reach": 1759,
      "neur": 1760,
      "##rodu": 1761,
      "comb": 1762,
      "dev": 1763,
      "deal": 1764,
      "##osp": 1765,
      "##iving": 1766,
      "##ush": 1767,
      "write": 1768,
      "travel": 1769,
      "belie": 1770,
      "medical": 1771,
      "##fully": 1772,
      "repres": 1773,
      "computer": 1774,
      "eyes": 1775,
      "langu": 1776,
      "bat": 1777,
      "brought": 1778,
      "cir": 1779,
      "dam": 1780,
      "die": 1781,
      "dark": 1782,
      "fire": 1783,
      "har": 1784,
      "mars": 1785,
      "pan": 1786,
      "sat": 1787,
      "tiny": 1788,
      "vict": 1789,
      "##ted": 1790,
      "##fl": 1791,
      "##ina": 1792,
      "##ators": 1793,
      "stat": 1794,
      "##olute": 1795,
      "ability": 1796,
      "##illions": 1797,
      "##ively": 1798,
      "enter": 1799,
      "##ode": 1800,
      "couldn": 1801,
      "others": 1802,
      "##eria": 1803,
      "photos": 1804,
      "powerful": 1805,
      "##wards": 1806,
      "clean": 1807,
      "clear": 1808,
      "challenge": 1809,
      "##ney": 1810,
      "population": 1811,
      "large": 1812,
      "identity": 1813,
      "absolute": 1814,
      "ocean": 1815,
      "beautiful": 1816,
      "bodies": 1817,
      "europe": 1818,
      "suffer": 1819,
      "born": 1820,
      "ca": 1821,
      "cities": 1822,
      "hosp": 1823,
      "liter": 1824,
      "mic": 1825,
      "tem": 1826,
      "##ton": 1827,
      "##ease": 1828,
      "##ples": 1829,
      "##ned": 1830,
      "##rop": 1831,
      "##mp": 1832,
      "itself": 1833,
      "sho": 1834,
      "mob": 1835,
      "neigh": 1836,
      "worse": 1837,
      "spent": 1838,
      "##usion": 1839,
      "lost": 1840,
      "disease": 1841,
      "cond": 1842,
      "##ried": 1843,
      "201": 1844,
      "recogn": 1845,
      "passion": 1846,
      "grew": 1847,
      "risk": 1848,
      "##heim": 1849,
      "intelligence": 1850,
      "camera": 1851,
      "fundamental": 1852,
      "favorite": 1853,
      "language": 1854,
      "neighb": 1855,
      "bir": 1856,
      "fac": 1857,
      "hor": 1858,
      "mass": 1859,
      "miss": 1860,
      "pract": 1861,
      "rather": 1862,
      "sis": 1863,
      "##ron": 1864,
      "##ma": 1865,
      "##olved": 1866,
      "asking": 1867,
      "chem": 1868,
      "##ants": 1869,
      "##ills": 1870,
      "procr": 1871,
      "##ified": 1872,
      "##cient": 1873,
      "##cially": 1874,
      "yourself": 1875,
      "expect": 1876,
      "affect": 1877,
      "post": 1878,
      "grad": 1879,
      "famil": 1880,
      "creating": 1881,
      "ready": 1882,
      "growing": 1883,
      "model": 1884,
      "scientists": 1885,
      "architecture": 1886,
      "colleag": 1887,
      "engineer": 1888,
      "speak": 1889,
      "multip": 1890,
      "morning": 1891,
      "material": 1892,
      "please": 1893,
      "jealousy": 1894,
      "beyond": 1895,
      "##heimer": 1896,
      "procrast": 1897,
      "gone": 1898,
      "hop": 1899,
      "ms": 1900,
      "net": 1901,
      "national": 1902,
      "ps": 1903,
      "press": 1904,
      "park": 1905,
      "sust": 1906,
      "var": 1907,
      "##cra": 1908,
      "##bo": 1909,
      "##hood": 1910,
      "##ales": 1911,
      "##chan": 1912,
      "##ither": 1913,
      "mechan": 1914,
      "##room": 1915,
      "trick": 1916,
      "tried": 1917,
      "enc": 1918,
      "##orts": 1919,
      "##ously": 1920,
      "##ored": 1921,
      "starts": 1922,
      "result": 1923,
      "accept": 1924,
      "pred": 1925,
      "##iction": 1926,
      "helped": 1927,
      "wrote": 1928,
      "##ency": 1929,
      "personal": 1930,
      "##anger": 1931,
      "medic": 1932,
      "##ledge": 1933,
      "##pecially": 1934,
      "solve": 1935,
      "american": 1936,
      "movement": 1937,
      "patient": 1938,
      "beginning": 1939,
      "profess": 1940,
      "especially": 1941,
      "huge": 1942,
      "achieve": 1943,
      "innov": 1944,
      "absolutely": 1945,
      "sustain": 1946,
      "18": 1947,
      "cit": 1948,
      "eat": 1949,
      "eight": 1950,
      "ess": 1951,
      "fear": 1952,
      "sn": 1953,
      "sitting": 1954,
      "vol": 1955,
      "vers": 1956,
      "##tle": 1957,
      "##tain": 1958,
      "##ient": 1959,
      "##ience": 1960,
      "##uly": 1961,
      "##bs": 1962,
      "##zheimer": 1963,
      "third": 1964,
      "##atom": 1965,
      "began": 1966,
      "##ots": 1967,
      "##iment": 1968,
      "anatom": 1969,
      "likely": 1970,
      "dep": 1971,
      "##aus": 1972,
      "alzheimer": 1973,
      "maj": 1974,
      "##ife": 1975,
      "leg": 1976,
      "##ability": 1977,
      "starting": 1978,
      "discover": 1979,
      "cool": 1980,
      "adult": 1981,
      "##rible": 1982,
      "bridge": 1983,
      "blood": 1984,
      "emot": 1985,
      "##ysomet": 1986,
      "technolog": 1987,
      "##rene": 1988,
      "happening": 1989,
      "obvious": 1990,
      "systems": 1991,
      "buildings": 1992,
      "sla": 1993,
      "capital": 1994,
      "transform": 1995,
      "strong": 1996,
      "attention": 1997,
      "development": 1998,
      "groups": 1999,
      "full": 2000,
      "services": 2001,
      "figure": 2002,
      "draw": 2003,
      "hospital": 2004,
      "psych": 2005,
      "##ysomething": 2006,
      "ahead": 2007,
      "cut": 2008,
      "ele": 2009,
      "faster": 2010,
      "mir": 2011,
      "oly": 2012,
      "opp": 2013,
      "occ": 2014,
      "pa": 2015,
      "rich": 2016,
      "tit": 2017,
      "tar": 2018,
      "won": 2019,
      "##ially": 2020,
      "##ged": 2021,
      "##ah": 2022,
      "##lt": 2023,
      "##lo": 2024,
      "##dden": 2025,
      "##ern": 2026,
      "##rem": 2027,
      "##ane": 2028,
      "##ising": 2029,
      "##ishing": 2030,
      "white": 2031,
      "stru": 2032,
      "##ules": 2033,
      "becomes": 2034,
      "usually": 2035,
      "known": 2036,
      "sudden": 2037,
      "save": 2038,
      "exper": 2039,
      "loved": 2040,
      "perform": 2041,
      "prin": 2042,
      "poor": 2043,
      "parts": 2044,
      "consider": 2045,
      "##tend": 2046,
      "memor": 2047,
      "key": 2048,
      "entrep": 2049,
      "glass": 2050,
      "attack": 2051,
      "skin": 2052,
      "seems": 2053,
      "subject": 2054,
      "hundred": 2055,
      "political": 2056,
      "protect": 2057,
      "measure": 2058,
      "normal": 2059,
      "victim": 2060,
      "major": 2061,
      "olymp": 2062,
      "entreprene": 2063,
      "bed": 2064,
      "bar": 2065,
      "bott": 2066,
      "ed": 2067,
      "fly": 2068,
      "fast": 2069,
      "ill": 2070,
      "prou": 2071,
      "pix": 2072,
      "tree": 2073,
      "touch": 2074,
      "##to": 2075,
      "##eel": 2076,
      "##vin": 2077,
      "rele": 2078,
      "rece": 2079,
      "requ": 2080,
      "##etic": 2081,
      "stra": 2082,
      "stage": 2083,
      "seven": 2084,
      "##ustr": 2085,
      "##acy": 2086,
      "spread": 2087,
      "knowledge": 2088,
      "suic": 2089,
      "##mented": 2090,
      "safe": 2091,
      "twent": 2092,
      "realize": 2093,
      "##ques": 2094,
      "intern": 2095,
      "impact": 2096,
      "scre": 2097,
      "scale": 2098,
      "block": 2099,
      "appro": 2100,
      "learning": 2101,
      "obs": 2102,
      "remembering": 2103,
      "slow": 2104,
      "crit": 2105,
      "extrem": 2106,
      "product": 2107,
      "generation": 2108,
      "structures": 2109,
      "species": 2110,
      "freed": 2111,
      "education": 2112,
      "extraord": 2113,
      "citiz": 2114,
      "aud": 2115,
      "caus": 2116,
      "dou": 2117,
      "hit": 2118,
      "ken": 2119,
      "lay": 2120,
      "los": 2121,
      "lines": 2122,
      "nine": 2123,
      "pen": 2124,
      "ri": 2125,
      "##ping": 2126,
      "##ium": 2127,
      "##not": 2128,
      "##gy": 2129,
      "##land": 2130,
      "##face": 2131,
      "##work": 2132,
      "##ball": 2133,
      "##oring": 2134,
      "##ison": 2135,
      "rev": 2136,
      "##ston": 2137,
      "ones": 2138,
      "forward": 2139,
      "secre": 2140,
      "worth": 2141,
      "progress": 2142,
      "wouldn": 2143,
      "##astic": 2144,
      "expert": 2145,
      "climate": 2146,
      "priv": 2147,
      "co2": 2148,
      "arr": 2149,
      "techni": 2150,
      "##akes": 2151,
      "oper": 2152,
      "invest": 2153,
      "memories": 2154,
      "early": 2155,
      "basically": 2156,
      "interested": 2157,
      "walking": 2158,
      "present": 2159,
      "girls": 2160,
      "computers": 2161,
      "books": 2162,
      "disability": 2163,
      "situation": 2164,
      "thousands": 2165,
      "increase": 2166,
      "africa": 2167,
      "doctor": 2168,
      "target": 2169,
      "olympics": 2170,
      "twentysomething": 2171,
      "approach": 2172,
      "freedom": 2173,
      "500": 2174,
      "ce": 2175,
      "categ": 2176,
      "dest": 2177,
      "fill": 2178,
      "nu": 2179,
      "path": 2180,
      "paper": 2181,
      "rain": 2182,
      "rare": 2183,
      "san": 2184,
      "sour": 2185,
      "ult": 2186,
      "##power": 2187,
      "##aim": 2188,
      "##app": 2189,
      "##up": 2190,
      "town": 2191,
      "##aly": 2192,
      "##itch": 2193,
      "store": 2194,
      "soon": 2195,
      "##oles": 2196,
      "send": 2197,
      "china": 2198,
      "##estic": 2199,
      "except": 2200,
      "truly": 2201,
      "however": 2202,
      "intel": 2203,
      "##aged": 2204,
      "clos": 2205,
      "prom": 2206,
      "looks": 2207,
      "chance": 2208,
      "telling": 2209,
      "speed": 2210,
      "desc": 2211,
      "humans": 2212,
      "remind": 2213,
      "greatest": 2214,
      "feeling": 2215,
      "longer": 2216,
      "pattern": 2217,
      "meaning": 2218,
      "basic": 2219,
      "record": 2220,
      "transp": 2221,
      "century": 2222,
      "behav": 2223,
      "standing": 2224,
      "virt": 2225,
      "vacc": 2226,
      "individuals": 2227,
      "tools": 2228,
      "character": 2229,
      "challenges": 2230,
      "potential": 2231,
      "exactly": 2232,
      "miles": 2233,
      "eventually": 2234,
      "global": 2235,
      "represent": 2236,
      "40": 2237,
      "bal": 2238,
      "king": 2239,
      "mine": 2240,
      "oil": 2241,
      "pack": 2242,
      "size": 2243,
      "tur": 2244,
      "##ires": 2245,
      "##ler": 2246,
      "##fit": 2247,
      "##worth": 2248,
      "##more": 2249,
      "##ats": 2250,
      "##onse": 2251,
      "##itions": 2252,
      "weird": 2253,
      "##utions": 2254,
      "iss": 2255,
      "##ids": 2256,
      "##very": 2257,
      "##verse": 2258,
      "forms": 2259,
      "##ades": 2260,
      "cannot": 2261,
      "peace": 2262,
      "main": 2263,
      "trip": 2264,
      "##ift": 2265,
      "taken": 2266,
      "complic": 2267,
      "among": 2268,
      "amount": 2269,
      "cloud": 2270,
      "anyone": 2271,
      "rights": 2272,
      "biggest": 2273,
      "writing": 2274,
      "incred": 2275,
      "##ploy": 2276,
      "center": 2277,
      "particip": 2278,
      "diag": 2279,
      "structure": 2280,
      "economic": 2281,
      "epic": 2282,
      "honest": 2283,
      "quickly": 2284,
      "augmented": 2285,
      "cases": 2286,
      "experiencing": 2287,
      "including": 2288,
      "chemical": 2289,
      "secret": 2290,
      "intellect": 2291,
      "code": 2292,
      "egy": 2293,
      "hy": 2294,
      "rom": 2295,
      "site": 2296,
      "tas": 2297,
      "##por": 2298,
      "##iet": 2299,
      "##cl": 2300,
      "##cum": 2301,
      "##entially": 2302,
      "ancient": 2303,
      "goog": 2304,
      "mov": 2305,
      "##raid": 2306,
      "##antic": 2307,
      "deli": 2308,
      "##ume": 2309,
      "spr": 2310,
      "introdu": 2311,
      "##ards": 2312,
      "##apt": 2313,
      "feet": 2314,
      "clin": 2315,
      "afraid": 2316,
      "buy": 2317,
      "internet": 2318,
      "imagination": 2319,
      "flow": 2320,
      "host": 2321,
      "photo": 2322,
      "understanding": 2323,
      "changing": 2324,
      "pull": 2325,
      "healthy": 2326,
      "##view": 2327,
      "magic": 2328,
      "giving": 2329,
      "respect": 2330,
      "response": 2331,
      "cells": 2332,
      "broad": 2333,
      "virus": 2334,
      "objects": 2335,
      "feminist": 2336,
      "thousand": 2337,
      "supposed": 2338,
      "micro": 2339,
      "mobile": 2340,
      "colleagues": 2341,
      "##load": 2342,
      "entrepreneurs": 2343,
      "international": 2344,
      "extreme": 2345,
      "extraordinary": 2346,
      "audience": 2347,
      "egypt": 2348,
      "3d": 2349,
      "ban": 2350,
      "bact": 2351,
      "cause": 2352,
      "caught": 2353,
      "eb": 2354,
      "est": 2355,
      "fix": 2356,
      "ice": 2357,
      "mig": 2358,
      "male": 2359,
      "pet": 2360,
      "ser": 2361,
      "sle": 2362,
      "tast": 2363,
      "##gth": 2364,
      "##aff": 2365,
      "##use": 2366,
      "##vent": 2367,
      "##han": 2368,
      "theory": 2369,
      "##erm": 2370,
      "##ato": 2371,
      "##isions": 2372,
      "wear": 2373,
      "##icle": 2374,
      "react": 2375,
      "##sequ": 2376,
      "stood": 2377,
      "ant": 2378,
      "neg": 2379,
      "##rage": 2380,
      "ali": 2381,
      "maint": 2382,
      "##allow": 2383,
      "##unately": 2384,
      "knows": 2385,
      "table": 2386,
      "anymore": 2387,
      "arg": 2388,
      "##ological": 2389,
      "interact": 2390,
      "scan": 2391,
      "decision": 2392,
      "humanity": 2393,
      "drive": 2394,
      "instit": 2395,
      "surpr": 2396,
      "flo": 2397,
      "invent": 2398,
      "experiences": 2399,
      "match": 2400,
      "##ailable": 2401,
      "moments": 2402,
      "numbers": 2403,
      "career": 2404,
      "female": 2405,
      "report": 2406,
      "trustworth": 2407,
      "president": 2408,
      "##airs": 2409,
      "produce": 2410,
      "publ": 2411,
      "motion": 2412,
      "college": 2413,
      "animals": 2414,
      "available": 2415,
      "nearly": 2416,
      "summer": 2417,
      "shape": 2418,
      "totally": 2419,
      "procrastin": 2420,
      "screen": 2421,
      "nucle": 2422,
      "complicated": 2423,
      "google": 2424,
      "movies": 2425,
      "11": 2426,
      "25": 2427,
      "300": 2428,
      "60": 2429,
      "bene": 2430,
      "bunch": 2431,
      "dan": 2432,
      "danger": 2433,
      "either": 2434,
      "fit": 2435,
      "hun": 2436,
      "low": 2437,
      "log": 2438,
      "luck": 2439,
      "named": 2440,
      "ray": 2441,
      "rules": 2442,
      "vult": 2443,
      "##egr": 2444,
      "##iant": 2445,
      "##na": 2446,
      "##af": 2447,
      "##for": 2448,
      "##fact": 2449,
      "##cul": 2450,
      "##uit": 2451,
      "##ove": 2452,
      "##mother": 2453,
      "##bit": 2454,
      "##back": 2455,
      "##how": 2456,
      "thr": 2457,
      "##ero": 2458,
      "##ature": 2459,
      "##ened": 2460,
      "infect": 2461,
      "##ently": 2462,
      "##ames": 2463,
      "liber": 2464,
      "aren": 2465,
      "area": 2466,
      "whatever": 2467,
      "##race": 2468,
      "##aced": 2469,
      "##artment": 2470,
      "##ief": 2471,
      "##ify": 2472,
      "integr": 2473,
      "##ival": 2474,
      "evidence": 2475,
      "##ude": 2476,
      "surface": 2477,
      "involved": 2478,
      "focus": 2479,
      "gamers": 2480,
      "198": 2481,
      "199": 2482,
      "centr": 2483,
      "sounds": 2484,
      "physic": 2485,
      "corre": 2486,
      "green": 2487,
      "stopped": 2488,
      "inspir": 2489,
      "silk": 2490,
      "programs": 2491,
      "directly": 2492,
      "##fortable": 2493,
      "grandmother": 2494,
      "typical": 2495,
      "radio": 2496,
      "positive": 2497,
      "domestic": 2498,
      "literally": 2499,
      "mirac": 2500,
      "suicide": 2501,
      "intellectual": 2502,
      "nuclear": 2503,
      "13": 2504,
      "aim": 2505,
      "civ": 2506,
      "da": 2507,
      "ground": 2508,
      "nice": 2509,
      "page": 2510,
      "push": 2511,
      "ru": 2512,
      "rid": 2513,
      "sam": 2514,
      "##par": 2515,
      "##ios": 2516,
      "##gery": 2517,
      "##fr": 2518,
      "##old": 2519,
      "##wise": 2520,
      "##atic": 2521,
      "towards": 2522,
      "ine": 2523,
      "inner": 2524,
      "##ites": 2525,
      "##lex": 2526,
      "##icy": 2527,
      "##amp": 2528,
      "##imin": 2529,
      "ann": 2530,
      "areas": 2531,
      "goal": 2532,
      "asl": 2533,
      "sea": 2534,
      "##eless": 2535,
      "somehow": 2536,
      "worlds": 2537,
      "express": 2538,
      "quant": 2539,
      "nobody": 2540,
      "##abor": 2541,
      "anybody": 2542,
      "arm": 2543,
      "imposs": 2544,
      "perspect": 2545,
      "putting": 2546,
      "decade": 2547,
      "smart": 2548,
      "capt": 2549,
      "camp": 2550,
      "skills": 2551,
      "confl": 2552,
      "governments": 2553,
      "magaz": 2554,
      "seemed": 2555,
      "university": 2556,
      "unique": 2557,
      "visual": 2558,
      "effects": 2559,
      "choos": 2560,
      "detail": 2561,
      "particularly": 2562,
      "korea": 2563,
      "drug": 2564,
      "terror": 2565,
      "reflect": 2566,
      "robot": 2567,
      "neuros": 2568,
      "families": 2569,
      "medicine": 2570,
      "suddenly": 2571,
      "experiment": 2572,
      "citizens": 2573,
      "techniques": 2574,
      "impossible": 2575,
      "ath": 2576,
      "fa": 2577,
      "ger": 2578,
      "gard": 2579,
      "jap": 2580,
      "la": 2581,
      "lions": 2582,
      "lower": 2583,
      "nar": 2584,
      "pal": 2585,
      "seri": 2586,
      "swe": 2587,
      "taught": 2588,
      "west": 2589,
      "wide": 2590,
      "zero": 2591,
      "##put": 2592,
      "##nal": 2593,
      "##light": 2594,
      "##lier": 2595,
      "##cap": 2596,
      "##bb": 2597,
      "##yn": 2598,
      "threat": 2599,
      "tons": 2600,
      "##aries": 2601,
      "##asing": 2602,
      "##seum": 2603,
      "haven": 2604,
      "star": 2605,
      "stick": 2606,
      "waste": 2607,
      "forget": 2608,
      "##ama": 2609,
      "lif": 2610,
      "##imately": 2611,
      "asp": 2612,
      "sell": 2613,
      "worst": 2614,
      "worry": 2615,
      "notice": 2616,
      "consequ": 2617,
      "plat": 2618,
      "##unte": 2619,
      "imm": 2620,
      "activ": 2621,
      "unfort": 2622,
      "claim": 2623,
      "prote": 2624,
      "contain": 2625,
      "blue": 2626,
      "boat": 2627,
      "showing": 2628,
      "opin": 2629,
      "indust": 2630,
      "offic": 2631,
      "surgery": 2632,
      "20s": 2633,
      "older": 2634,
      "finding": 2635,
      "foot": 2636,
      "cris": 2637,
      "##ruction": 2638,
      "strange": 2639,
      "lights": 2640,
      "gives": 2641,
      "accom": 2642,
      "leaders": 2643,
      "pictures": 2644,
      "disabled": 2645,
      "broken": 2646,
      "motiv": 2647,
      "watching": 2648,
      "certainly": 2649,
      "redu": 2650,
      "recently": 2651,
      "birth": 2652,
      "practice": 2653,
      "predict": 2654,
      "volunte": 2655,
      "technologies": 2656,
      "slavery": 2657,
      "straight": 2658,
      "twentysomethings": 2659,
      "ultimately": 2660,
      "conflict": 2661,
      "japan": 2662,
      "16": 2663,
      "bul": 2664,
      "bak": 2665,
      "div": 2666,
      "fing": 2667,
      "fant": 2668,
      "fres": 2669,
      "hid": 2670,
      "jum": 2671,
      "ln": 2672,
      "lau": 2673,
      "mr": 2674,
      "pur": 2675,
      "rap": 2676,
      "race": 2677,
      "sal": 2678,
      "wild": 2679,
      "wish": 2680,
      "wife": 2681,
      "##iod": 2682,
      "##ners": 2683,
      "##nos": 2684,
      "##cut": 2685,
      "##ufact": 2686,
      "##ming": 2687,
      "##mend": 2688,
      "##ban": 2689,
      "##just": 2690,
      "throw": 2691,
      "##ony": 2692,
      "##ala": 2693,
      "##isms": 2694,
      "##ley": 2695,
      "##owd": 2696,
      "repl": 2697,
      "##ola": 2698,
      "held": 2699,
      "gold": 2700,
      "shop": 2701,
      "shown": 2702,
      "necess": 2703,
      "##rove": 2704,
      "##tered": 2705,
      "##ilar": 2706,
      "deg": 2707,
      "demo": 2708,
      "trad": 2709,
      "whose": 2710,
      "text": 2711,
      "manufact": 2712,
      "quiet": 2713,
      "willing": 2714,
      "discus": 2715,
      "disapp": 2716,
      "period": 2717,
      "print": 2718,
      "museum": 2719,
      "##cks": 2720,
      "resour": 2721,
      "adm": 2722,
      "gotten": 2723,
      "brick": 2724,
      "email": 2725,
      "prep": 2726,
      "symb": 2727,
      "bigger": 2728,
      "apply": 2729,
      "appear": 2730,
      "decades": 2731,
      "understood": 2732,
      "earlier": 2733,
      "court": 2734,
      "waiting": 2735,
      "function": 2736,
      "refugee": 2737,
      "account": 2738,
      "value": 2739,
      "listening": 2740,
      "inspired": 2741,
      "speaking": 2742,
      "relationships": 2743,
      "proper": 2744,
      "mistakes": 2745,
      "tomato": 2746,
      "provide": 2747,
      "streets": 2748,
      "believed": 2749,
      "gradu": 2750,
      "innovation": 2751,
      "oppos": 2752,
      "strugg": 2753,
      "pixels": 2754,
      "revolution": 2755,
      "bacteria": 2756,
      "maintain": 2757,
      "published": 2758,
      "vultures": 2759,
      "civil": 2760,
      "announ": 2761,
      "platform": 2762,
      "unfortunately": 2763,
      "discuss": 2764,
      "80": 2765,
      "breat": 2766,
      "died": 2767,
      "er": 2768,
      "hot": 2769,
      "ir": 2770,
      "jam": 2771,
      "kan": 2772,
      "las": 2773,
      "mis": 2774,
      "mention": 2775,
      "mount": 2776,
      "millions": 2777,
      "nr": 2778,
      "wer": 2779,
      "##go": 2780,
      "##ging": 2781,
      "##uel": 2782,
      "##oid": 2783,
      "##dom": 2784,
      "##inated": 2785,
      "init": 2786,
      "##ises": 2787,
      "##oming": 2788,
      "wheel": 2789,
      "##ica": 2790,
      "stren": 2791,
      "sold": 2792,
      "washing": 2793,
      "forced": 2794,
      "##key": 2795,
      "above": 2796,
      "asse": 2797,
      "search": 2798,
      "chines": 2799,
      "deb": 2800,
      "##pped": 2801,
      "##iforn": 2802,
      "##unk": 2803,
      "spo": 2804,
      "sugg": 2805,
      "wants": 2806,
      "##ores": 2807,
      "otherwise": 2808,
      "cover": 2809,
      "contem": 2810,
      "emma": 2811,
      "syn": 2812,
      "syri": 2813,
      "colon": 2814,
      "thanks": 2815,
      "beings": 2816,
      "talked": 2817,
      "shows": 2818,
      "showed": 2819,
      "training": 2820,
      "decisions": 2821,
      "student": 2822,
      "terrible": 2823,
      "similar": 2824,
      "himself": 2825,
      "planning": 2826,
      "schools": 2827,
      "examples": 2828,
      "points": 2829,
      "brains": 2830,
      "solution": 2831,
      "harder": 2832,
      "reading": 2833,
      "metal": 2834,
      "easily": 2835,
      "reasons": 2836,
      "funny": 2837,
      "modern": 2838,
      "teacher": 2839,
      "type": 2840,
      "successful": 2841,
      "conversations": 2842,
      "disabilities": 2843,
      "connection": 2844,
      "scientific": 2845,
      "valu": 2846,
      "walked": 2847,
      "beauty": 2848,
      "feminism": 2849,
      "electric": 2850,
      "animal": 2851,
      "communicate": 2852,
      "market": 2853,
      "characters": 2854,
      "judge": 2855,
      "collabor": 2856,
      "californ": 2857,
      "device": 2858,
      "damage": 2859,
      "sisters": 2860,
      "encou": 2861,
      "sustainable": 2862,
      "anatomy": 2863,
      "adults": 2864,
      "doub": 2865,
      "river": 2866,
      "categories": 2867,
      "behavior": 2868,
      "ebola": 2869,
      "perspective": 2870,
      "german": 2871,
      "crisis": 2872,
      "bullet": 2873,
      "symbol": 2874,
      "weren": 2875,
      "strength": 2876,
      "chinese": 2877,
      "suggest": 2878,
      "!\"": 2879,
      "14": 2880,
      "17": 2881,
      "12": 2882,
      "ara": 2883,
      "bord": 2884,
      "cat": 2885,
      "din": 2886,
      "dim": 2887,
      "east": 2888,
      "fine": 2889,
      "fiction": 2890,
      "hiv": 2891,
      "lad": 2892,
      "late": 2893,
      "mal": 2894,
      "none": 2895,
      "pil": 2896,
      "rational": 2897,
      "ripp": 2898,
      "squ": 2899,
      "tun": 2900,
      "tack": 2901,
      "ug": 2902,
      "##iar": 2903,
      "##gry": 2904,
      "##lish": 2905,
      "##book": 2906,
      "##ya": 2907,
      "##erve": 2908,
      "##atives": 2909,
      "##alia": 2910,
      "##itation": 2911,
      "##arily": 2912,
      "web": 2913,
      "##icians": 2914,
      "##oty": 2915,
      "##otential": 2916,
      "libr": 2917,
      "myst": 2918,
      "meant": 2919,
      "##ther": 2920,
      "moved": 2921,
      "separ": 2922,
      "notic": 2923,
      "attend": 2924,
      "##antly": 2925,
      "canad": 2926,
      "cancer": 2927,
      "conv": 2928,
      "concre": 2929,
      "##ulate": 2930,
      "becoming": 2931,
      "map": 2932,
      "upon": 2933,
      "saving": 2934,
      "diseas": 2935,
      "##itten": 2936,
      "##itted": 2937,
      "cold": 2938,
      "resolution": 2939,
      "##ologists": 2940,
      "contest": 2941,
      "contact": 2942,
      "empower": 2943,
      "brave": 2944,
      "##athers": 2945,
      "apple": 2946,
      "creativity": 2947,
      "guess": 2948,
      "office": 2949,
      "entrop": 2950,
      "capable": 2951,
      "solar": 2952,
      "197": 2953,
      "effort": 2954,
      "americans": 2955,
      "magn": 2956,
      "developing": 2957,
      "developed": 2958,
      "processing": 2959,
      "respons": 2960,
      "sorts": 2961,
      "projects": 2962,
      "check": 2963,
      "architects": 2964,
      "eye": 2965,
      "##medi": 2966,
      "wonderful": 2967,
      "killed": 2968,
      "biology": 2969,
      "windows": 2970,
      "laws": 2971,
      "photography": 2972,
      "position": 2973,
      "possibility": 2974,
      "falling": 2975,
      "journal": 2976,
      "neighbor": 2977,
      "title": 2978,
      "princi": 2979,
      "incredible": 2980,
      "romantic": 2981,
      "task": 2982,
      "deliver": 2983,
      "benefit": 2984,
      "dangerous": 2985,
      "opinion": 2986,
      "fresh": 2987,
      "kanner": 2988,
      "california": 2989,
      "diseases": 2990,
      "21": 2991,
      "24": 2992,
      "alex": 2993,
      "bon": 2994,
      "bare": 2995,
      "dress": 2996,
      "ec": 2997,
      "eth": 2998,
      "gar": 2999,
      "gap": 3000,
      "jer": 3001,
      "lat": 3002,
      "lose": 3003,
      "math": 3004,
      "mouth": 3005,
      "son": 3006,
      "wit": 3007,
      "##ee": 3008,
      "##ex": 3009,
      "##ik": 3010,
      "##aking": 3011,
      "##la": 3012,
      "##ford": 3013,
      "##come": 3014,
      "##cert": 3015,
      "##sp": 3016,
      "##of": 3017,
      "##yl": 3018,
      "##hm": 3019,
      "##ze": 3020,
      "##erc": 3021,
      "##ought": 3022,
      "tor": 3023,
      "##ances": 3024,
      "##arm": 3025,
      "##icking": 3026,
      "beat": 3027,
      "##lls": 3028,
      "##llo": 3029,
      "reci": 3030,
      "onto": 3031,
      "ste": 3032,
      "##iday": 3033,
      "force": 3034,
      "forth": 3035,
      "##amb": 3036,
      "lived": 3037,
      "##imb": 3038,
      "##imize": 3039,
      "anal": 3040,
      "ange": 3041,
      "heat": 3042,
      "frustr": 3043,
      "##ils": 3044,
      "##ession": 3045,
      "##iend": 3046,
      "sports": 3047,
      "immedi": 3048,
      "action": 3049,
      "##used": 3050,
      "##ference": 3051,
      "manage": 3052,
      "quality": 3053,
      "prize": 3054,
      "anyway": 3055,
      "ide": 3056,
      "admit": 3057,
      "adapt": 3058,
      "mostly": 3059,
      "interse": 3060,
      "##ribe": 3061,
      "tells": 3062,
      "desp": 3063,
      "consum": 3064,
      "conserv": 3065,
      "track": 3066,
      "##phone": 3067,
      "india": 3068,
      "surge": 3069,
      "matters": 3070,
      "shouldn": 3071,
      "crowd": 3072,
      "##others": 3073,
      "capac": 3074,
      "designed": 3075,
      "designers": 3076,
      "confident": 3077,
      "carry": 3078,
      "article": 3079,
      "minute": 3080,
      "wait": 3081,
      "##ission": 3082,
      "univers": 3083,
      "societ": 3084,
      "leads": 3085,
      "politics": 3086,
      "popular": 3087,
      "engineers": 3088,
      "tremend": 3089,
      "determ": 3090,
      "signific": 3091,
      "window": 3092,
      "drugs": 3093,
      "allowed": 3094,
      "challenging": 3095,
      "types": 3096,
      "embrace": 3097,
      "street": 3098,
      "continue": 3099,
      "clearly": 3100,
      "suffering": 3101,
      "multipotential": 3102,
      "network": 3103,
      "##craft": 3104,
      "version": 3105,
      "bottom": 3106,
      "issue": 3107,
      "chemicals": 3108,
      "miguel": 3109,
      "miracle": 3110,
      "quantum": 3111,
      "magazine": 3112,
      "choosing": 3113,
      "athlet": 3114,
      "garden": 3115,
      "hidden": 3116,
      "mountain": 3117,
      "22": 3118,
      "70": 3119,
      "ber": 3120,
      "bom": 3121,
      "ball": 3122,
      "bud": 3123,
      "base": 3124,
      "burn": 3125,
      "billions": 3126,
      "cy": 3127,
      "cure": 3128,
      "cru": 3129,
      "eating": 3130,
      "fra": 3131,
      "gay": 3132,
      "hig": 3133,
      "hate": 3134,
      "jan": 3135,
      "pound": 3136,
      "rate": 3137,
      "sen": 3138,
      "tough": 3139,
      "vill": 3140,
      "##gen": 3141,
      "##ges": 3142,
      "##gad": 3143,
      "##band": 3144,
      "##rent": 3145,
      "##onst": 3146,
      "##esome": 3147,
      "##anch": 3148,
      "##itude": 3149,
      "##omen": 3150,
      "##asc": 3151,
      "youth": 3152,
      "##lem": 3153,
      "##lebr": 3154,
      "##lling": 3155,
      "reve": 3156,
      "repe": 3157,
      "##sey": 3158,
      "hair": 3159,
      "##vert": 3160,
      "liqu": 3161,
      "##ira": 3162,
      "doz": 3163,
      "docum": 3164,
      "##though": 3165,
      "shot": 3166,
      "moon": 3167,
      "mogad": 3168,
      "sequ": 3169,
      "select": 3170,
      "##rap": 3171,
      "frank": 3172,
      "fruit": 3173,
      "friday": 3174,
      "del": 3175,
      "although": 3176,
      "max": 3177,
      "##umn": 3178,
      "plastic": 3179,
      "ens": 3180,
      "somewhere": 3181,
      "intu": 3182,
      "##ager": 3183,
      "##aging": 3184,
      "agree": 3185,
      "phen": 3186,
      "phil": 3187,
      "displ": 3188,
      "##ips": 3189,
      "interview": 3190,
      "chann": 3191,
      "##ensive": 3192,
      "##ishu": 3193,
      "gray": 3194,
      "grown": 3195,
      "contrib": 3196,
      "boys": 3197,
      "helping": 3198,
      "written": 3199,
      "##athan": 3200,
      "creates": 3201,
      "creative": 3202,
      "creatures": 3203,
      "##arks": 3204,
      "instance": 3205,
      "kept": 3206,
      "fold": 3207,
      "importantly": 3208,
      "english": 3209,
      "final": 3210,
      "lesson": 3211,
      "autistic": 3212,
      "magnet": 3213,
      "current": 3214,
      "running": 3215,
      "universe": 3216,
      "politicians": 3217,
      "closet": 3218,
      "machines": 3219,
      "videos": 3220,
      "organization": 3221,
      "keeps": 3222,
      "vacation": 3223,
      "opportunities": 3224,
      "deeply": 3225,
      "service": 3226,
      "aware": 3227,
      "awesome": 3228,
      "gender": 3229,
      "honor": 3230,
      "sensors": 3231,
      "optim": 3232,
      "communication": 3233,
      "urban": 3234,
      "apart": 3235,
      "dropped": 3236,
      "journey": 3237,
      "entertain": 3238,
      "sister": 3239,
      "pressure": 3240,
      "various": 3241,
      "discovered": 3242,
      "proust": 3243,
      "caused": 3244,
      "celebr": 3245,
      "describ": 3246,
      "patterns": 3247,
      "vaccines": 3248,
      "iceber": 3249,
      "sleep": 3250,
      "negative": 3251,
      "washington": 3252,
      "concrete": 3253,
      "bonob": 3254,
      "witness": 3255,
      "immediately": 3256,
      "despite": 3257,
      "athletes": 3258,
      "mogadishu": 3259,
      "400": 3260,
      "bab": 3261,
      "dying": 3262,
      "fur": 3263,
      "fair": 3264,
      "fathers": 3265,
      "fasc": 3266,
      "gent": 3267,
      "hur": 3268,
      "ip": 3269,
      "mental": 3270,
      "nathan": 3271,
      "pink": 3272,
      "sad": 3273,
      "zo": 3274,
      "##tu": 3275,
      "##ef": 3276,
      "##ech": 3277,
      "##night": 3278,
      "##ram": 3279,
      "##rate": 3280,
      "##ole": 3281,
      "##wor": 3282,
      "##ded": 3283,
      "##mes": 3284,
      "##bits": 3285,
      "##vant": 3286,
      "##ha": 3287,
      "##inct": 3288,
      "##ndon": 3289,
      "##reci": 3290,
      "##anc": 3291,
      "##alk": 3292,
      "##eds": 3293,
      "inf": 3294,
      "##oms": 3295,
      "##omos": 3296,
      "##ased": 3297,
      "weak": 3298,
      "wearing": 3299,
      "bear": 3300,
      "reb": 3301,
      "##set": 3302,
      "habit": 3303,
      "staff": 3304,
      "soft": 3305,
      "fort": 3306,
      "lie": 3307,
      "lib": 3308,
      "doors": 3309,
      "##oph": 3310,
      "seat": 3311,
      "##roc": 3312,
      "chest": 3313,
      "##ulous": 3314,
      "depe": 3315,
      "##istan": 3316,
      "altern": 3317,
      "truck": 3318,
      "##umb": 3319,
      "placed": 3320,
      "spect": 3321,
      "tele": 3322,
      "##cience": 3323,
      "##uss": 3324,
      "##izations": 3325,
      "uncom": 3326,
      "london": 3327,
      "anywhere": 3328,
      "##cket": 3329,
      "differences": 3330,
      "armed": 3331,
      "adversity": 3332,
      "##epend": 3333,
      "grit": 3334,
      "content": 3335,
      "role": 3336,
      "employ": 3337,
      "coun": 3338,
      "sym": 3339,
      "played": 3340,
      "famous": 3341,
      "appl": 3342,
      "appreci": 3343,
      "train": 3344,
      "trained": 3345,
      "invited": 3346,
      "members": 3347,
      "childhood": 3348,
      "planets": 3349,
      "hond": 3350,
      "monkey": 3351,
      "kevin": 3352,
      "related": 3353,
      "slide": 3354,
      "##ibility": 3355,
      "police": 3356,
      "policy": 3357,
      "transition": 3358,
      "solutions": 3359,
      "finan": 3360,
      "camel": 3361,
      "highly": 3362,
      "auth": 3363,
      "curve": 3364,
      "curios": 3365,
      "shared": 3366,
      "teams": 3367,
      "teachers": 3368,
      "vision": 3369,
      "violent": 3370,
      "histor": 3371,
      "dreams": 3372,
      "married": 3373,
      "profound": 3374,
      "joh": 3375,
      "largest": 3376,
      "silence": 3377,
      "trees": 3378,
      "evolutionary": 3379,
      "feeding": 3380,
      "regular": 3381,
      "levels": 3382,
      "avoid": 3383,
      "korean": 3384,
      "raise": 3385,
      "accessible": 3386,
      "mistake": 3387,
      "african": 3388,
      "possibilities": 3389,
      "failure": 3390,
      "fighting": 3391,
      "chromos": 3392,
      "emergency": 3393,
      "circle": 3394,
      "marshm": 3395,
      "satis": 3396,
      "condition": 3397,
      "multiple": 3398,
      "##cracy": 3399,
      "profession": 3400,
      "department": 3401,
      "emotion": 3402,
      "obviously": 3403,
      "paul": 3404,
      "majority": 3405,
      "proud": 3406,
      "arrived": 3407,
      "closer": 3408,
      "diagnos": 3409,
      "entrepreneurship": 3410,
      "alien": 3411,
      "floor": 3412,
      "trustworthy": 3413,
      "serious": 3414,
      "##cape": 3415,
      "protein": 3416,
      "accompl": 3417,
      "purp": 3418,
      "opposite": 3419,
      "laser": 3420,
      "wheelch": 3421,
      "spoke": 3422,
      "noticed": 3423,
      "angeles": 3424,
      "higher": 3425,
      "display": 3426,
      "uncomfortable": 3427,
      "curiosity": 3428,
      "90": 3429,
      "bath": 3430,
      "cast": 3431,
      "catch": 3432,
      "dri": 3433,
      "dna": 3434,
      "fan": 3435,
      "fle": 3436,
      "fol": 3437,
      "fishing": 3438,
      "hus": 3439,
      "kil": 3440,
      "led": 3441,
      "mant": 3442,
      "mill": 3443,
      "mort": 3444,
      "od": 3445,
      "rot": 3446,
      "rout": 3447,
      "tight": 3448,
      "ut": 3449,
      "vary": 3450,
      "wik": 3451,
      "##port": 3452,
      "##iest": 3453,
      "##iety": 3454,
      "##gn": 3455,
      "##fety": 3456,
      "##ration": 3457,
      "##rant": 3458,
      "##ub": 3459,
      "##uct": 3460,
      "##sh": 3461,
      "##ox": 3462,
      "##wood": 3463,
      "##bi": 3464,
      "##bed": 3465,
      "##hod": 3466,
      "##hamed": 3467,
      "##zz": 3468,
      "toward": 3469,
      "##anistan": 3470,
      "##oration": 3471,
      "##orrow": 3472,
      "##ching": 3473,
      "##imp": 3474,
      "##irt": 3475,
      "##olve": 3476,
      "hey": 3477,
      "abund": 3478,
      "shock": 3479,
      "sec": 3480,
      "notion": 3481,
      "##tery": 3482,
      "franc": 3483,
      "##erson": 3484,
      "exe": 3485,
      "defe": 3486,
      "##istics": 3487,
      "##iel": 3488,
      "trash": 3489,
      "enab": 3490,
      "spin": 3491,
      "spir": 3492,
      "spaces": 3493,
      "safety": 3494,
      "acts": 3495,
      "seek": 3496,
      "##ago": 3497,
      "amira": 3498,
      "ages": 3499,
      "lea": 3500,
      "##ghanistan": 3501,
      "realistic": 3502,
      "##iphan": 3503,
      "afghanistan": 3504,
      "##cked": 3505,
      "##ulture": 3506,
      "calls": 3507,
      "calling": 3508,
      "##ologist": 3509,
      "speech": 3510,
      "bright": 3511,
      "brother": 3512,
      "blog": 3513,
      "prevent": 3514,
      "applic": 3515,
      "decl": 3516,
      "dram": 3517,
      "driving": 3518,
      "smell": 3519,
      "independ": 3520,
      "instant": 3521,
      "invented": 3522,
      "hole": 3523,
      "##angers": 3524,
      "relig": 3525,
      "method": 3526,
      "growth": 3527,
      "particles": 3528,
      "opening": 3529,
      "opened": 3530,
      "minds": 3531,
      "passed": 3532,
      "easier": 3533,
      "respond": 3534,
      "wake": 3535,
      "standard": 3536,
      "plants": 3537,
      "teaching": 3538,
      "warcraft": 3539,
      "fuel": 3540,
      "voc": 3541,
      "voices": 3542,
      "general": 3543,
      "corner": 3544,
      "parad": 3545,
      "connected": 3546,
      "scientist": 3547,
      "farmers": 3548,
      "cheap": 3549,
      "specific": 3550,
      "prototy": 3551,
      "epiphan": 3552,
      "sexual": 3553,
      "multi": 3554,
      "normally": 3555,
      "assign": 3556,
      "boxes": 3557,
      "meeting": 3558,
      "figured": 3559,
      "intelligent": 3560,
      "150": 3561,
      "koreans": 3562,
      "address": 3563,
      "options": 3564,
      "raised": 3565,
      "demand": 3566,
      "markets": 3567,
      "shaped": 3568,
      "radical": 3569,
      "exciting": 3570,
      "forest": 3571,
      "costs": 3572,
      "explained": 3573,
      "burning": 3574,
      "survive": 3575,
      "experienced": 3576,
      "continu": 3577,
      "total": 3578,
      "harv": 3579,
      "2011": 3580,
      "passionate": 3581,
      "birds": 3582,
      "horrible": 3583,
      "mission": 3584,
      "engineering": 3585,
      "mechanics": 3586,
      "essential": 3587,
      "essentially": 3588,
      "snow": 3589,
      "considered": 3590,
      "received": 3591,
      "losing": 3592,
      "experts": 3593,
      "source": 3594,
      "transport": 3595,
      "turning": 3596,
      "clinic": 3597,
      "extremely": 3598,
      "procrastinator": 3599,
      "lucky": 3600,
      "correl": 3601,
      "rapid": 3602,
      "shopping": 3603,
      "degree": 3604,
      "resources": 3605,
      "valuable": 3606,
      "electricity": 3607,
      "border": 3608,
      "entropica": 3609,
      "jersey": 3610,
      "##laved": 3611,
      "capacity": 3612,
      "liquid": 3613,
      "enslaved": 3614,
      "phenomen": 3615,
      "hondur": 3616,
      "marshmallow": 3617,
      "folks": 3618,
      "francis": 3619,
      "600": 3620,
      "aids": 3621,
      "bone": 3622,
      "bag": 3623,
      "bound": 3624,
      "cry": 3625,
      "cogn": 3626,
      "den": 3627,
      "dar": 3628,
      "dad": 3629,
      "dign": 3630,
      "fed": 3631,
      "hol": 3632,
      "hall": 3633,
      "holog": 3634,
      "hang": 3635,
      "jew": 3636,
      "loss": 3637,
      "master": 3638,
      "nut": 3639,
      "oz": 3640,
      "ped": 3641,
      "pill": 3642,
      "purs": 3643,
      "ren": 3644,
      "ran": 3645,
      "rand": 3646,
      "sou": 3647,
      "sor": 3648,
      "tens": 3649,
      "wiz": 3650,
      "wood": 3651,
      "##ta": 3652,
      "##ext": 3653,
      "##aur": 3654,
      "##ls": 3655,
      "##lands": 3656,
      "##ror": 3657,
      "##rum": 3658,
      "##cu": 3659,
      "##uild": 3660,
      "##met": 3661,
      "##break": 3662,
      "##val": 3663,
      "##ering": 3664,
      "##erge": 3665,
      "##erved": 3666,
      "infl": 3667,
      "##isher": 3668,
      "##itar": 3669,
      "##ason": 3670,
      "webs": 3671,
      "ital": 3672,
      "##vey": 3673,
      "##oting": 3674,
      "##aming": 3675,
      "abilities": 3676,
      "abuse": 3677,
      "asso": 3678,
      "sha": 3679,
      "ship": 3680,
      "##roll": 3681,
      "note": 3682,
      "champ": 3683,
      "conor": 3684,
      "exerc": 3685,
      "allows": 3686,
      "##ulated": 3687,
      "orig": 3688,
      "mak": 3689,
      "##emy": 3690,
      "enj": 3691,
      "spl": 3692,
      "teen": 3693,
      "justice": 3694,
      "##anda": 3695,
      "fell": 3696,
      "##aren": 3697,
      "compared": 3698,
      "quar": 3699,
      "agric": 3700,
      "disp": 3701,
      "prison": 3702,
      "hero": 3703,
      "partner": 3704,
      "littlebits": 3705,
      "grade": 3706,
      "context": 3707,
      "scary": 3708,
      "scene": 3709,
      "brothers": 3710,
      "roll": 3711,
      "courage": 3712,
      "prec": 3713,
      "bond": 3714,
      "board": 3715,
      "asks": 3716,
      "creature": 3717,
      "greater": 3718,
      "factor": 3719,
      "inde": 3720,
      "feelings": 3721,
      "##ording": 3722,
      "genetic": 3723,
      "holly": 3724,
      "monster": 3725,
      "photons": 3726,
      "engage": 3727,
      "confidence": 3728,
      "explore": 3729,
      "exploration": 3730,
      "grows": 3731,
      "hopefully": 3732,
      "presented": 3733,
      "stuck": 3734,
      "produced": 3735,
      "jobs": 3736,
      "subm": 3737,
      "answers": 3738,
      "diversity": 3739,
      "according": 3740,
      "leader": 3741,
      "tests": 3742,
      "topic": 3743,
      "cheaper": 3744,
      "entirely": 3745,
      "treatment": 3746,
      "advent": 3747,
      "##like": 3748,
      "increasing": 3749,
      "sensing": 3750,
      "option": 3751,
      "urg": 3752,
      "existence": 3753,
      "materials": 3754,
      "newsp": 3755,
      "message": 3756,
      "walls": 3757,
      "christ": 3758,
      "perfectly": 3759,
      "tempt": 3760,
      "recognize": 3761,
      "neighbors": 3762,
      "familiar": 3763,
      "hopes": 3764,
      "occur": 3765,
      "victims": 3766,
      "privile": 3767,
      "introduce": 3768,
      "pulled": 3769,
      "argum": 3770,
      "central": 3771,
      "details": 3772,
      "neuroscience": 3773,
      "faith": 3774,
      "sweet": 3775,
      "activities": 3776,
      "industry": 3777,
      "finger": 3778,
      "democracy": 3779,
      "tradition": 3780,
      "assemb": 3781,
      "synth": 3782,
      "germany": 3783,
      "arab": 3784,
      "dimens": 3785,
      "ugly": 3786,
      "barely": 3787,
      "societies": 3788,
      "nathaniel": 3789,
      "zoom": 3790,
      "financial": 3791,
      "purpose": 3792,
      "epiphany": 3793,
      "random": 3794,
      "associ": 3795,
      "hollywood": 3796,
      "bank": 3797,
      "cook": 3798,
      "cars": 3799,
      "cows": 3800,
      "et": 3801,
      "fat": 3802,
      "gree": 3803,
      "gather": 3804,
      "gift": 3805,
      "giant": 3806,
      "hom": 3807,
      "il": 3808,
      "jar": 3809,
      "jack": 3810,
      "jason": 3811,
      "mer": 3812,
      "mit": 3813,
      "nation": 3814,
      "names": 3815,
      "pair": 3816,
      "pages": 3817,
      "rac": 3818,
      "rates": 3819,
      "range": 3820,
      "ske": 3821,
      "sons": 3822,
      "ts": 3823,
      "vul": 3824,
      "vast": 3825,
      "vib": 3826,
      "wow": 3827,
      "zamb": 3828,
      "##pid": 3829,
      "##ground": 3830,
      "##uary": 3831,
      "##spect": 3832,
      "##oint": 3833,
      "##ollo": 3834,
      "##wide": 3835,
      "##worm": 3836,
      "##water": 3837,
      "##ket": 3838,
      "##ding": 3839,
      "##yan": 3840,
      "##xnet": 3841,
      "therap": 3842,
      "##atically": 3843,
      "##rew": 3844,
      "##rest": 3845,
      "tony": 3846,
      "andro": 3847,
      "##ann": 3848,
      "##alt": 3849,
      "##alty": 3850,
      "input": 3851,
      "##iti": 3852,
      "##itable": 3853,
      "##itution": 3854,
      "##asa": 3855,
      "##ases": 3856,
      "##leg": 3857,
      "refer": 3858,
      "##oted": 3859,
      "isol": 3860,
      "stress": 3861,
      "steel": 3862,
      "##idents": 3863,
      "##urd": 3864,
      "##urity": 3865,
      "##urance": 3866,
      "##ami": 3867,
      "##ops": 3868,
      "heav": 3869,
      "abst": 3870,
      "shr": 3871,
      "shel": 3872,
      "shame": 3873,
      "sharing": 3874,
      "sharks": 3875,
      "convin": 3876,
      "concl": 3877,
      "trade": 3878,
      "##iff": 3879,
      "##ifying": 3880,
      "knock": 3881,
      "outbreak": 3882,
      "##emic": 3883,
      "##ement": 3884,
      "plans": 3885,
      "spot": 3886,
      "tend": 3887,
      "hadn": 3888,
      "worldwide": 3889,
      "everyday": 3890,
      "everywhere": 3891,
      "actual": 3892,
      "unp": 3893,
      "unf": 3894,
      "fellow": 3895,
      "evolved": 3896,
      "compare": 3897,
      "expand": 3898,
      "expensive": 3899,
      "amp": 3900,
      "amb": 3901,
      "cloth": 3902,
      "client": 3903,
      "phr": 3904,
      "prim": 3905,
      "price": 3906,
      "afford": 3907,
      "coach": 3908,
      "party": 3909,
      "commit": 3910,
      "##ffic": 3911,
      "letter": 3912,
      "scar": 3913,
      "scared": 3914,
      "brown": 3915,
      "branch": 3916,
      "rock": 3917,
      "desire": 3918,
      "desert": 3919,
      "desper": 3920,
      "##icked": 3921,
      "prem": 3922,
      "remark": 3923,
      "colors": 3924,
      "column": 3925,
      "insight": 3926,
      "trag": 3927,
      "##ression": 3928,
      "studies": 3929,
      "schol": 3930,
      "flash": 3931,
      "invention": 3932,
      "plane": 3933,
      "relative": 3934,
      "##ibly": 3935,
      "graph": 3936,
      "strateg": 3937,
      "strangers": 3938,
      "seconds": 3939,
      "skill": 3940,
      "handle": 3941,
      "stupid": 3942,
      "stuxnet": 3943,
      "charge": 3944,
      "production": 3945,
      "stands": 3946,
      "models": 3947,
      "environments": 3948,
      "environmental": 3949,
      "broke": 3950,
      "connecting": 3951,
      "effective": 3952,
      "tested": 3953,
      "values": 3954,
      "risks": 3955,
      "organizations": 3956,
      "winter": 3957,
      "pieces": 3958,
      "inspire": 3959,
      "economy": 3960,
      "labor": 3961,
      "feedback": 3962,
      "wondering": 3963,
      "detect": 3964,
      "swim": 3965,
      "assist": 3966,
      "return": 3967,
      "businesses": 3968,
      "following": 3969,
      "apollo": 3970,
      "achie": 3971,
      "forever": 3972,
      "foreign": 3973,
      "paying": 3974,
      "possibly": 3975,
      "fields": 3976,
      "doctors": 3977,
      "chris": 3978,
      "temper": 3979,
      "affects": 3980,
      "drawing": 3981,
      "paid": 3982,
      "struck": 3983,
      "requires": 3984,
      "criteria": 3985,
      "destro": 3986,
      "filled": 3987,
      "promise": 3988,
      "describe": 3989,
      "transparen": 3990,
      "kingdom": 3991,
      "participate": 3992,
      "egyptian": 3993,
      "series": 3994,
      "centrif": 3995,
      "inspiration": 3996,
      "silkworm": 3997,
      "daily": 3998,
      "narr": 3999,
      "lifet": 4000,
      "aspir": 4001,
      "consequences": 4002,
      "motivated": 4003,
      "volunteers": 4004,
      "baker": 4005,
      "manufacturing": 4006,
      "property": 4007,
      "graduate": 4008,
      "struggle": 4009,
      "encourage": 4010,
      "doubt": 4011,
      "dinner": 4012,
      "square": 4013,
      "library": 4014,
      "canada": 4015,
      "neighborhood": 4016,
      "frustrated": 4017,
      "ideology": 4018,
      "bomb": 4019,
      "maximize": 4020,
      "entertainment": 4021,
      "further": 4022,
      "rebuild": 4023,
      "appreciate": 4024,
      "satisf": 4025,
      "husband": 4026,
      "spirit": 4027,
      "harvard": 4028,
      "francisco": 4029,
      "holmes": 4030,
      "sorry": 4031,
      "wizard": 4032,
      "enjoy": 4033,
      "indeed": 4034,
      "vulner": 4035,
      "remarkable": 4036,
      "transparency": 4037,
      "27": 4038,
      "ack": 4039,
      "aston": 4040,
      "bg": 4041,
      "ble": 4042,
      "bought": 4043,
      "cust": 4044,
      "cand": 4045,
      "core": 4046,
      "dive": 4047,
      "fren": 4048,
      "fake": 4049,
      "fisher": 4050,
      "gun": 4051,
      "hi": 4052,
      "hen": 4053,
      "hide": 4054,
      "hated": 4055,
      "iron": 4056,
      "ign": 4057,
      "jail": 4058,
      "lack": 4059,
      "lands": 4060,
      "mi": 4061,
      "mich": 4062,
      "nan": 4063,
      "nur": 4064,
      "nerv": 4065,
      "picking": 4066,
      "row": 4067,
      "rab": 4068,
      "rip": 4069,
      "tv": 4070,
      "tall": 4071,
      "tour": 4072,
      "tired": 4073,
      "wed": 4074,
      "wound": 4075,
      "zone": 4076,
      "##taw": 4077,
      "##ees": 4078,
      "##pes": 4079,
      "##iation": 4080,
      "##iors": 4081,
      "##now": 4082,
      "##lin": 4083,
      "##lines": 4084,
      "##father": 4085,
      "##ront": 4086,
      "##cop": 4087,
      "##uff": 4088,
      "##sc": 4089,
      "##ois": 4090,
      "##win": 4091,
      "##ware": 4092,
      "##ked": 4093,
      "##kward": 4094,
      "##yle": 4095,
      "##hol": 4096,
      "##hab": 4097,
      "##jtaw": 4098,
      "##atar": 4099,
      "##nding": 4100,
      "##reg": 4101,
      "##enn": 4102,
      "##ese": 4103,
      "##anic": 4104,
      "##anced": 4105,
      "##orter": 4106,
      "##orge": 4107,
      "##isible": 4108,
      "youtu": 4109,
      "weight": 4110,
      "##lement": 4111,
      "whom": 4112,
      "itjtaw": 4113,
      "beach": 4114,
      "##eth": 4115,
      "##ctions": 4116,
      "stone": 4117,
      "stars": 4118,
      "soph": 4119,
      "##ceed": 4120,
      "##ceived": 4121,
      "lies": 4122,
      "lift": 4123,
      "##irty": 4124,
      "angry": 4125,
      "heal": 4126,
      "hell": 4127,
      "hearing": 4128,
      "gosp": 4129,
      "asyl": 4130,
      "shif": 4131,
      "shift": 4132,
      "mole": 4133,
      "chick": 4134,
      "concer": 4135,
      "conference": 4136,
      "exists": 4137,
      "##ulum": 4138,
      "##acking": 4139,
      "org": 4140,
      "alco": 4141,
      "proof": 4142,
      "##une": 4143,
      "##eline": 4144,
      "##aining": 4145,
      "sav": 4146,
      "saved": 4147,
      "##usive": 4148,
      "##izes": 4149,
      "unless": 4150,
      "uncert": 4151,
      "unlike": 4152,
      "##agers": 4153,
      "veh": 4154,
      "novel": 4155,
      "closed": 4156,
      "twice": 4157,
      "overwh": 4158,
      "pray": 4159,
      "##cker": 4160,
      "cof": 4161,
      "talib": 4162,
      "pocket": 4163,
      "partners": 4164,
      "##ption": 4165,
      "adop": 4166,
      "interp": 4167,
      "##rial": 4168,
      "##riarch": 4169,
      "improve": 4170,
      "underne": 4171,
      "acad": 4172,
      "scales": 4173,
      "brill": 4174,
      "blind": 4175,
      "remote": 4176,
      "famine": 4177,
      "income": 4178,
      "##encies": 4179,
      "personality": 4180,
      "##obi": 4181,
      "indu": 4182,
      "instruct": 4183,
      "simpl": 4184,
      "surround": 4185,
      "flight": 4186,
      "invisible": 4187,
      "ended": 4188,
      "genes": 4189,
      "genome": 4190,
      "photogra": 4191,
      "##avig": 4192,
      "earn": 4193,
      "slight": 4194,
      "crimin": 4195,
      "placebo": 4196,
      "captain": 4197,
      "natalia": 4198,
      "designing": 4199,
      "bits": 4200,
      "196": 4201,
      "finished": 4202,
      "headed": 4203,
      "confront": 4204,
      "centers": 4205,
      "reprodu": 4206,
      "artists": 4207,
      "autom": 4208,
      "successfully": 4209,
      "steps": 4210,
      "distinct": 4211,
      "violin": 4212,
      "farmer": 4213,
      "facebook": 4214,
      "march": 4215,
      "marry": 4216,
      "studying": 4217,
      "cultures": 4218,
      "joy": 4219,
      "bringing": 4220,
      "holding": 4221,
      "feminine": 4222,
      "films": 4223,
      "measles": 4224,
      "ordinary": 4225,
      "##ipped": 4226,
      "spending": 4227,
      "electron": 4228,
      "collected": 4229,
      "signs": 4230,
      "assum": 4231,
      "awkward": 4232,
      "retouch": 4233,
      "frequ": 4234,
      "drucker": 4235,
      "equal": 4236,
      "equation": 4237,
      "existing": 4238,
      "summ": 4239,
      "constantly": 4240,
      "fundament": 4241,
      "offered": 4242,
      "excited": 4243,
      "drops": 4244,
      "photographs": 4245,
      "burden": 4246,
      "picked": 4247,
      "tomorrow": 4248,
      "august": 4249,
      "cardi": 4250,
      "cards": 4251,
      "combining": 4252,
      "belief": 4253,
      "panic": 4254,
      "enterpr": 4255,
      "suffered": 4256,
      "horiz": 4257,
      "engineered": 4258,
      "procrastination": 4259,
      "networ": 4260,
      "professor": 4261,
      "anatomical": 4262,
      "legacy": 4263,
      "slaves": 4264,
      "richard": 4265,
      "performance": 4266,
      "memorize": 4267,
      "glasses": 4268,
      "bedroom": 4269,
      "spreading": 4270,
      "critical": 4271,
      "double": 4272,
      "layers": 4273,
      "destruction": 4274,
      "exceptional": 4275,
      "virtu": 4276,
      "virtual": 4277,
      "vaccine": 4278,
      "issues": 4279,
      "##porary": 4280,
      "clinical": 4281,
      "peter": 4282,
      "trustworthiness": 4283,
      "correct": 4284,
      "pushed": 4285,
      "volunteer": 4286,
      "fantastic": 4287,
      "jump": 4288,
      "necessary": 4289,
      "necessarily": 4290,
      "museums": 4291,
      "announcer": 4292,
      "breath": 4293,
      "debate": 4294,
      "covered": 4295,
      "ladies": 4296,
      "malala": 4297,
      "ripples": 4298,
      "tackle": 4299,
      "empowered": 4300,
      "magnets": 4301,
      "responsibility": 4302,
      "recipe": 4303,
      "analog": 4304,
      "universal": 4305,
      "tremendous": 4306,
      "baseball": 4307,
      "january": 4308,
      "village": 4309,
      "reveal": 4310,
      "sequences": 4311,
      "iceberg": 4312,
      "baby": 4313,
      "author": 4314,
      "john": 4315,
      "wheelchair": 4316,
      "driver": 4317,
      "security": 4318,
      "execut": 4319,
      "religion": 4320,
      "honduras": 4321,
      "cognitive": 4322,
      "darwin": 4323,
      "dignity": 4324,
      "##itarian": 4325,
      "agriculture": 4326,
      "tragic": 4327,
      "scholars": 4328,
      "destroy": 4329,
      "acknow": 4330,
      "henry": 4331,
      "nervous": 4332,
      "youtube": 4333,
      "itjtawy": 4334,
      "sophistic": 4335,
      "gospel": 4336,
      "asylum": 4337,
      "alcohol": 4338,
      "uncertain": 4339,
      "overwhel": 4340,
      "taliban": 4341,
      "underneath": 4342,
      "photograp": 4343,
      ".,": 4344,
      "75": 4345,
      "80s": 4346,
      "99": 4347,
      "bre": 4348,
      "bow": 4349,
      "bill": 4350,
      "bind": 4351,
      "bry": 4352,
      "bird": 4353,
      "boring": 4354,
      "dice": 4355,
      "dating": 4356,
      "dyn": 4357,
      "fif": 4358,
      "fab": 4359,
      "gear": 4360,
      "horm": 4361,
      "hipp": 4362,
      "homes": 4363,
      "ly": 4364,
      "lorn": 4365,
      "lake": 4366,
      "nor": 4367,
      "nasa": 4368,
      "navig": 4369,
      "oct": 4370,
      "pure": 4371,
      "rig": 4372,
      "roo": 4373,
      "raw": 4374,
      "song": 4375,
      "sier": 4376,
      "sides": 4377,
      "session": 4378,
      "van": 4379,
      "vote": 4380,
      "verge": 4381,
      "wre": 4382,
      "##iot": 4383,
      "##nes": 4384,
      "##gar": 4385,
      "##got": 4386,
      "##ault": 4387,
      "##rom": 4388,
      "##rig": 4389,
      "##right": 4390,
      "##cil": 4391,
      "##cure": 4392,
      "##cles": 4393,
      "##mate": 4394,
      "##bel": 4395,
      "##yer": 4396,
      "##vation": 4397,
      "##vable": 4398,
      "##har": 4399,
      "##het": 4400,
      "##hold": 4401,
      "##xic": 4402,
      "##[\"": 4403,
      "##inate": 4404,
      "##inating": 4405,
      "##att": 4406,
      "##atory": 4407,
      "##atial": 4408,
      "tow": 4409,
      "anderson": 4410,
      "##ening": 4411,
      "##anium": 4412,
      "##edic": 4413,
      "##edia": 4414,
      "inj": 4415,
      "inher": 4416,
      "injust": 4417,
      "##itor": 4418,
      "##asure": 4419,
      "wet": 4420,
      "italy": 4421,
      "##utical": 4422,
      "##ctic": 4423,
      "station": 4424,
      "stem": 4425,
      "stable": 4426,
      "stream": 4427,
      "soil": 4428,
      "##idity": 4429,
      "##urally": 4430,
      "##ches": 4431,
      "forces": 4432,
      "##amm": 4433,
      "limit": 4434,
      "##imm": 4435,
      "dog": 4436,
      "anx": 4437,
      "goals": 4438,
      "asph": 4439,
      "shad": 4440,
      "shout": 4441,
      "shorter": 4442,
      "neither": 4443,
      "sees": 4444,
      "chose": 4445,
      "chair": 4446,
      "chief": 4447,
      "comfortable": 4448,
      "##raint": 4449,
      "atl": 4450,
      "congress": 4451,
      "##iling": 4452,
      "##ears": 4453,
      "extend": 4454,
      "##acing": 4455,
      "##pper": 4456,
      "knife": 4457,
      "##osition": 4458,
      "##ema": 4459,
      "plus": 4460,
      "spain": 4461,
      "spatial": 4462,
      "knowing": 4463,
      "yours": 4464,
      "##ained": 4465,
      "suit": 4466,
      "thinks": 4467,
      "sand": 4468,
      "tail": 4469,
      "unex": 4470,
      "compl": 4471,
      "exposed": 4472,
      "qual": 4473,
      "noise": 4474,
      "leone": 4475,
      "##fee": 4476,
      "click": 4477,
      "climb": 4478,
      "workers": 4479,
      "##resp": 4480,
      "loving": 4481,
      "overload": 4482,
      "disg": 4483,
      "disc": 4484,
      "disney": 4485,
      "happier": 4486,
      "herself": 4487,
      "##ipt": 4488,
      "##ipedia": 4489,
      "coop": 4490,
      "coast": 4491,
      "poison": 4492,
      "resist": 4493,
      "adjust": 4494,
      "advert": 4495,
      "evening": 4496,
      "gotta": 4497,
      "committed": 4498,
      "lets": 4499,
      "brit": 4500,
      "blow": 4501,
      "blank": 4502,
      "emp": 4503,
      "empt": 4504,
      "##ysis": 4505,
      "brands": 4506,
      "helps": 4507,
      "##cond": 4508,
      "player": 4509,
      "throughout": 4510,
      "imaging": 4511,
      "imagined": 4512,
      "##rency": 4513,
      "##erties": 4514,
      "##ossum": 4515,
      "opossum": 4516,
      "##ials": 4517,
      "thoughts": 4518,
      "offers": 4519,
      "flu": 4520,
      "##plan": 4521,
      "##place": 4522,
      "genet": 4523,
      "keys": 4524,
      "farms": 4525,
      "entit": 4526,
      "founding": 4527,
      "foundation": 4528,
      "recon": 4529,
      "crime": 4530,
      "##azz": 4531,
      "creation": 4532,
      "engaged": 4533,
      "grab": 4534,
      "heads": 4535,
      "attrib": 4536,
      "##iously": 4537,
      "efforts": 4538,
      "fourth": 4539,
      "singular": 4540,
      "younger": 4541,
      "artist": 4542,
      "charles": 4543,
      "currency": 4544,
      "musical": 4545,
      "setting": 4546,
      "funds": 4547,
      "accur": 4548,
      "cellphone": 4549,
      "distur": 4550,
      "distract": 4551,
      "distrib": 4552,
      "##while": 4553,
      "generations": 4554,
      "coral": 4555,
      "connections": 4556,
      "effectively": 4557,
      "funding": 4558,
      "marine": 4559,
      "rising": 4560,
      "join": 4561,
      "joined": 4562,
      "organism": 4563,
      "organisms": 4564,
      "contrast": 4565,
      "##ography": 4566,
      "larger": 4567,
      "protest": 4568,
      "listened": 4569,
      "measures": 4570,
      "epid": 4571,
      "identify": 4572,
      "advoc": 4573,
      "daughters": 4574,
      "regard": 4575,
      "##ashion": 4576,
      "##pected": 4577,
      "severe": 4578,
      "grandfather": 4579,
      "deadline": 4580,
      "properties": 4581,
      "##ocking": 4582,
      "demonst": 4583,
      "oceans": 4584,
      "constraint": 4585,
      "excl": 4586,
      "boyfr": 4587,
      "embass": 4588,
      "collaps": 4589,
      "complexity": 4590,
      "survival": 4591,
      "include": 4592,
      "combination": 4593,
      "devices": 4594,
      "circum": 4595,
      "damaged": 4596,
      "status": 4597,
      "statistic": 4598,
      "shoes": 4599,
      "shovel": 4600,
      "conditions": 4601,
      "recognition": 4602,
      "missing": 4603,
      "colleague": 4604,
      "encoun": 4605,
      "versus": 4606,
      "emotional": 4607,
      "stronger": 4608,
      "psychologists": 4609,
      "elements": 4610,
      "occas": 4611,
      "titanic": 4612,
      "experim": 4613,
      "attacks": 4614,
      "illustr": 4615,
      "release": 4616,
      "blocks": 4617,
      "slowly": 4618,
      "products": 4619,
      "kenya": 4620,
      "kenema": 4621,
      "layer": 4622,
      "penalty": 4623,
      "sanitation": 4624,
      "sources": 4625,
      "closest": 4626,
      "behaviors": 4627,
      "balance": 4628,
      "amongst": 4629,
      "incredibly": 4630,
      "introduced": 4631,
      "taste": 4632,
      "institution": 4633,
      "surprise": 4634,
      "floating": 4635,
      "reported": 4636,
      "inspiring": 4637,
      "sample": 4638,
      "inev": 4639,
      "inequ": 4640,
      "captured": 4641,
      "terrorism": 4642,
      "narrow": 4643,
      "widely": 4644,
      "threatened": 4645,
      "consequence": 4646,
      "industrial": 4647,
      "bakers": 4648,
      "fantas": 4649,
      "laun": 4650,
      "disappoint": 4651,
      "syria": 4652,
      "marketing": 4653,
      "pilot": 4654,
      "mysteri": 4655,
      "attending": 4656,
      "savings": 4657,
      "principle": 4658,
      "management": 4659,
      "intersex": 4660,
      "significant": 4661,
      "budget": 4662,
      "senate": 4663,
      "dozens": 4664,
      "document": 4665,
      "channels": 4666,
      "magnetic": 4667,
      "bonobos": 4668,
      "seattle": 4669,
      "counter": 4670,
      "chromosome": 4671,
      "accomplish": 4672,
      "bathroom": 4673,
      "wikipedia": 4674,
      "leaves": 4675,
      "vocal": 4676,
      "influ": 4677,
      "website": 4678,
      "italian": 4679,
      "origin": 4680,
      "maker": 4681,
      "urgent": 4682,
      "newspaper": 4683,
      "argument": 4684,
      "associated": 4685,
      "illeg": 4686,
      "skept": 4687,
      "conclusion": 4688,
      "phrase": 4689,
      "lifetime": 4690,
      "french": 4691,
      "chicken": 4692,
      "coffee": 4693,
      "brilliant": 4694,
      "electronics": 4695,
      "auguste": 4696,
      "enterprise": 4697,
      "virtuos": 4698,
      "bryan": 4699,
      "dynam": 4700,
      "lorna": 4701,
      "sierra": 4702,
      "asphalt": 4703,
      "unexpected": 4704,
      "illegal": 4705,
      "28": 4706,
      "36": 4707,
      "[\"": 4708,
      "az": 4709,
      "aed": 4710,
      "ben": 4711,
      "boun": 4712,
      "bored": 4713,
      "cg": 4714,
      "cous": 4715,
      "cute": 4716,
      "cross": 4717,
      "dow": 4718,
      "date": 4719,
      "dance": 4720,
      "fal": 4721,
      "fles": 4722,
      "faces": 4723,
      "fashion": 4724,
      "gig": 4725,
      "gad": 4726,
      "hired": 4727,
      "jig": 4728,
      "loud": 4729,
      "mas": 4730,
      "mut": 4731,
      "mix": 4732,
      "mama": 4733,
      "ol": 4734,
      "ox": 4735,
      "pul": 4736,
      "pian": 4737,
      "pitch": 4738,
      "russ": 4739,
      "sac": 4740,
      "tan": 4741,
      "tro": 4742,
      "tap": 4743,
      "vent": 4744,
      "wave": 4745,
      "##time": 4746,
      "##een": 4747,
      "##ius": 4748,
      "##gment": 4749,
      "##lies": 4750,
      "##rade": 4751,
      "##rated": 4752,
      "##rint": 4753,
      "##ca": 4754,
      "##can": 4755,
      "##cest": 4756,
      "##case": 4757,
      "##comes": 4758,
      "##uations": 4759,
      "##su": 4760,
      "##saw": 4761,
      "##daf": 4762,
      "##mas": 4763,
      "##mission": 4764,
      "##yt": 4765,
      "##vision": 4766,
      "##hen": 4767,
      "##hed": 4768,
      "##hop": 4769,
      "##zed": 4770,
      "##xas": 4771,
      "thro": 4772,
      "thick": 4773,
      "thes": 4774,
      "##inum": 4775,
      "##ndulum": 4776,
      "##oured": 4777,
      "##ret": 4778,
      "##esh": 4779,
      "##estern": 4780,
      "##itter": 4781,
      "##omp": 4782,
      "##asive": 4783,
      "wealth": 4784,
      "##lying": 4785,
      "hay": 4786,
      "##eter": 4787,
      "stro": 4788,
      "staring": 4789,
      "style": 4790,
      "##iding": 4791,
      "##urch": 4792,
      "##uries": 4793,
      "forgot": 4794,
      "##cend": 4795,
      "lim": 4796,
      "likes": 4797,
      "##ithood": 4798,
      "dos": 4799,
      "ancest": 4800,
      "myth": 4801,
      "heels": 4802,
      "shine": 4803,
      "sem": 4804,
      "selves": 4805,
      "sevent": 4806,
      "worn": 4807,
      "worried": 4808,
      "chunk": 4809,
      "comed": 4810,
      "##raged": 4811,
      "atm": 4812,
      "fright": 4813,
      "frame": 4814,
      "##iled": 4815,
      "##usted": 4816,
      "exch": 4817,
      "exha": 4818,
      "pendulum": 4819,
      "##essed": 4820,
      "alt": 4821,
      "alg": 4822,
      "alarm": 4823,
      "pros": 4824,
      "trillion": 4825,
      "trib": 4826,
      "##iform": 4827,
      "user": 4828,
      "outcomes": 4829,
      "##osm": 4830,
      "##oses": 4831,
      "##oscop": 4832,
      "whenever": 4833,
      "##unami": 4834,
      "enorm": 4835,
      "sport": 4836,
      "texas": 4837,
      "##oding": 4838,
      "sund": 4839,
      "sugar": 4840,
      "##ortion": 4841,
      "wanting": 4842,
      "##iven": 4843,
      "##ogue": 4844,
      "##apers": 4845,
      "actu": 4846,
      "active": 4847,
      "activity": 4848,
      "##ushing": 4849,
      "tax": 4850,
      "unem": 4851,
      "uniform": 4852,
      "##ague": 4853,
      "compar": 4854,
      "compass": 4855,
      "managed": 4856,
      "quot": 4857,
      "##aceutical": 4858,
      "phones": 4859,
      "pharm": 4860,
      "load": 4861,
      "overcome": 4862,
      "perse": 4863,
      "coco": 4864,
      "arctic": 4865,
      "poet": 4866,
      "adap": 4867,
      "##ologically": 4868,
      "##asses": 4869,
      "##ensity": 4870,
      "commer": 4871,
      "differently": 4872,
      "##ffiti": 4873,
      "letting": 4874,
      "scr": 4875,
      "scare": 4876,
      "brief": 4877,
      "blah": 4878,
      "deserve": 4879,
      "prefer": 4880,
      "previous": 4881,
      "bold": 4882,
      "boston": 4883,
      "consume": 4884,
      "playful": 4885,
      "writer": 4886,
      "imagin": 4887,
      "apparent": 4888,
      "puts": 4889,
      "humanitarian": 4890,
      "drill": 4891,
      "drink": 4892,
      "smo": 4893,
      "##akers": 4894,
      "below": 4895,
      "studied": 4896,
      "indic": 4897,
      "feels": 4898,
      "survey": 4899,
      "useful": 4900,
      "member": 4901,
      "20th": 4902,
      "##erger": 4903,
      "patriarch": 4904,
      "basis": 4905,
      "basket": 4906,
      "recall": 4907,
      "polar": 4908,
      "polio": 4909,
      "gamer": 4910,
      "futures": 4911,
      "engaging": 4912,
      "grace": 4913,
      "grabb": 4914,
      "graffiti": 4915,
      "camels": 4916,
      "attent": 4917,
      "females": 4918,
      "femto": 4919,
      "meters": 4920,
      "confused": 4921,
      "carried": 4922,
      "highest": 4923,
      "explan": 4924,
      "explos": 4925,
      "magical": 4926,
      "mindful": 4927,
      "##psych": 4928,
      "physically": 4929,
      "succeed": 4930,
      "##ification": 4931,
      "rooms": 4932,
      "##entional": 4933,
      "waithood": 4934,
      "##connect": 4935,
      "warhead": 4936,
      "amazed": 4937,
      "fully": 4938,
      "visited": 4939,
      "leading": 4940,
      "distance": 4941,
      "corresp": 4942,
      "midnight": 4943,
      "paral": 4944,
      "parking": 4945,
      "paraly": 4946,
      "closets": 4947,
      "surely": 4948,
      "##gged": 4949,
      "##lessly": 4950,
      "joke": 4951,
      "planetary": 4952,
      "specim": 4953,
      "specif": 4954,
      "motor": 4955,
      "winning": 4956,
      "objective": 4957,
      "holds": 4958,
      "situations": 4959,
      "treating": 4960,
      "treated": 4961,
      "watched": 4962,
      "views": 4963,
      "classic": 4964,
      "classroom": 4965,
      "elections": 4966,
      "advanced": 4967,
      "collecting": 4968,
      "collective": 4969,
      "wondered": 4970,
      "swing": 4971,
      "southern": 4972,
      "dollar": 4973,
      "deeper": 4974,
      "meetings": 4975,
      "moral": 4976,
      "##inson": 4977,
      "avatar": 4978,
      "added": 4979,
      "addition": 4980,
      "raising": 4981,
      "uranium": 4982,
      "painting": 4983,
      "painful": 4984,
      "restaur": 4985,
      "cameras": 4986,
      "educated": 4987,
      "construct": 4988,
      "construction": 4989,
      "suppose": 4990,
      "apartment": 4991,
      "defin": 4992,
      "milit": 4993,
      "sentence": 4994,
      "colorful": 4995,
      "globe": 4996,
      "reaching": 4997,
      "reached": 4998,
      "combined": 4999,
      "battery": 5000,
      "panpsych": 5001,
      "statistics": 5002,
      "shoot": 5003,
      "mobility": 5004,
      "recognized": 5005,
      "facil": 5006,
      "affected": 5007,
      "parkinson": 5008,
      "variety": 5009,
      "predators": 5010,
      "emotions": 5011,
      "memorizing": 5012,
      "subjective": 5013,
      "bottle": 5014,
      "pixel": 5015,
      "observed": 5016,
      "citizen": 5017,
      "private": 5018,
      "filling": 5019,
      "rarely": 5020,
      "meaningful": 5021,
      "ballet": 5022,
      "packed": 5023,
      "participation": 5024,
      "hyper": 5025,
      "spring": 5026,
      "estim": 5027,
      "fixed": 5028,
      "tasted": 5029,
      "reactor": 5030,
      "institute": 5031,
      "institutions": 5032,
      "surprising": 5033,
      "procrastinators": 5034,
      "hungry": 5035,
      "rays": 5036,
      "infected": 5037,
      "infection": 5038,
      "integration": 5039,
      "integrate": 5040,
      "physician": 5041,
      "ridic": 5042,
      "robotic": 5043,
      "neuroscient": 5044,
      "asperger": 5045,
      "contained": 5046,
      "reduce": 5047,
      "division": 5048,
      "mrs": 5049,
      "golden": 5050,
      "quietly": 5051,
      "disappear": 5052,
      "appearance": 5053,
      "properly": 5054,
      "tomatoes": 5055,
      "civilization": 5056,
      "iran": 5057,
      "mentioned": 5058,
      "initi": 5059,
      "contempl": 5060,
      "separate": 5061,
      "journalists": 5062,
      "steve": 5063,
      "surgeon": 5064,
      "surgeons": 5065,
      "multipotentialite": 5066,
      "multipotentialites": 5067,
      "frag": 5068,
      "pounds": 5069,
      "##lemen": 5070,
      "intuitive": 5071,
      "apartments": 5072,
      "fascinating": 5073,
      "gentlemen": 5074,
      "hurt": 5075,
      "ipad": 5076,
      "software": 5077,
      "alternative": 5078,
      "symph": 5079,
      "applied": 5080,
      "professionals": 5081,
      "manta": 5082,
      "millenn": 5083,
      "route": 5084,
      "varying": 5085,
      "abundant": 5086,
      "applications": 5087,
      "dramatic": 5088,
      "transportation": 5089,
      "soul": 5090,
      "shaft": 5091,
      "champions": 5092,
      "quarter": 5093,
      "privilege": 5094,
      "traditional": 5095,
      "assembly": 5096,
      "dimensional": 5097,
      "tsunami": 5098,
      "abstract": 5099,
      "convinced": 5100,
      "clothes": 5101,
      "desperately": 5102,
      "strategy": 5103,
      "temperature": 5104,
      "narrative": 5105,
      "satisfied": 5106,
      "vulnerable": 5107,
      "astonishing": 5108,
      "custom": 5109,
      "candid": 5110,
      "landscape": 5111,
      "nurse": 5112,
      "organs": 5113,
      "horizon": 5114,
      "destroyed": 5115,
      "roof": 5116,
      "wreck": 5117,
      "injustice": 5118,
      "atlantic": 5119,
      "cooper": 5120,
      "empty": 5121,
      "genetically": 5122,
      "embassy": 5123,
      "downt": 5124,
      "false": 5125,
      "flesh": 5126,
      "gaddaf": 5127,
      "enormous": 5128,
      "compassion": 5129,
      "pharmaceutical": 5130,
      "basketball": 5131,
      "gaddafi": 5132,
      "26": 5133,
      "35": 5134,
      "32": 5135,
      "65": 5136,
      "bru": 5137,
      "boss": 5138,
      "bicy": 5139,
      "cow": 5140,
      "cosm": 5141,
      "dear": 5142,
      "dust": 5143,
      "due": 5144,
      "drew": 5145,
      "ends": 5146,
      "egg": 5147,
      "fi": 5148,
      "fro": 5149,
      "fert": 5150,
      "gas": 5151,
      "gut": 5152,
      "gate": 5153,
      "gall": 5154,
      "gang": 5155,
      "groc": 5156,
      "hat": 5157,
      "holes": 5158,
      "iq": 5159,
      "jord": 5160,
      "kah": 5161,
      "kitch": 5162,
      "lest": 5163,
      "lying": 5164,
      "link": 5165,
      "lunch": 5166,
      "ment": 5167,
      "mall": 5168,
      "mud": 5169,
      "mary": 5170,
      "nin": 5171,
      "nod": 5172,
      "ov": 5173,
      "por": 5174,
      "pun": 5175,
      "piv": 5176,
      "pills": 5177,
      "pushing": 5178,
      "rat": 5179,
      "rage": 5180,
      "rice": 5181,
      "round": 5182,
      "rough": 5183,
      "sed": 5184,
      "sight": 5185,
      "sard": 5186,
      "sque": 5187,
      "sales": 5188,
      "til": 5189,
      "upper": 5190,
      "ven": 5191,
      "wat": 5192,
      "wis": 5193,
      "western": 5194,
      "yell": 5195,
      "zimb": 5196,
      "##table": 5197,
      "##tles": 5198,
      "##ek": 5199,
      "##equ": 5200,
      "##pan": 5201,
      "##pet": 5202,
      "##iat": 5203,
      "##iver": 5204,
      "##iop": 5205,
      "##iers": 5206,
      "##iable": 5207,
      "##greg": 5208,
      "##ae": 5209,
      "##ai": 5210,
      "##aign": 5211,
      "##fold": 5212,
      "##rong": 5213,
      "##rome": 5214,
      "##rating": 5215,
      "##rition": 5216,
      "##riend": 5217,
      "##cers": 5218,
      "##cons": 5219,
      "##uing": 5220,
      "##ught": 5221,
      "##uish": 5222,
      "##son": 5223,
      "##ok": 5224,
      "##oved": 5225,
      "##oven": 5226,
      "##mber": 5227,
      "##bow": 5228,
      "##bage": 5229,
      "##ym": 5230,
      "##vator": 5231,
      "##hand": 5232,
      "thread": 5233,
      "thirty": 5234,
      "##erable": 5235,
      "##inking": 5236,
      "##inction": 5237,
      "##infor": 5238,
      "##atter": 5239,
      "##ouds": 5240,
      "##rees": 5241,
      "##inguish": 5242,
      "toler": 5243,
      "##eng": 5244,
      "##esis": 5245,
      "##ana": 5246,
      "##organ": 5247,
      "inse": 5248,
      "##itory": 5249,
      "##itors": 5250,
      "##arant": 5251,
      "##arcer": 5252,
      "weap": 5253,
      "##owers": 5254,
      "reject": 5255,
      "reward": 5256,
      "reinfor": 5257,
      "##ione": 5258,
      "##othing": 5259,
      "##otus": 5260,
      "##ste": 5261,
      "##stances": 5262,
      "##strong": 5263,
      "hack": 5264,
      "stig": 5265,
      "stad": 5266,
      "stun": 5267,
      "steal": 5268,
      "stones": 5269,
      "stairs": 5270,
      "##idal": 5271,
      "##ched": 5272,
      "##ams": 5273,
      "##amor": 5274,
      "##celer": 5275,
      "anger": 5276,
      "abus": 5277,
      "aspect": 5278,
      "ashamed": 5279,
      "mel": 5280,
      "##ado": 5281,
      "##through": 5282,
      "shake": 5283,
      "shiny": 5284,
      "shirt": 5285,
      "mohamed": 5286,
      "seas": 5287,
      "whatso": 5288,
      "chain": 5289,
      "comment": 5290,
      "##raph": 5291,
      "ate": 5292,
      "##anted": 5293,
      "##gender": 5294,
      "##estin": 5295,
      "concent": 5296,
      "concert": 5297,
      "peak": 5298,
      "delic": 5299,
      "deaf": 5300,
      "orient": 5301,
      "##istry": 5302,
      "##arten": 5303,
      "alum": 5304,
      "alive": 5305,
      "alois": 5306,
      "trou": 5307,
      "##ump": 5308,
      "users": 5309,
      "outfit": 5310,
      "##osis": 5311,
      "##osph": 5312,
      "##ung": 5313,
      "spons": 5314,
      "##rous": 5315,
      "somewh": 5316,
      "##odotus": 5317,
      "upside": 5318,
      "suspect": 5319,
      "sahar": 5320,
      "##arded": 5321,
      "##aph": 5322,
      "worldview": 5323,
      "acting": 5324,
      "unit": 5325,
      "unle": 5326,
      "unfor": 5327,
      "##agen": 5328,
      "events": 5329,
      "compon": 5330,
      "comprom": 5331,
      "exped": 5332,
      "manip": 5333,
      "manager": 5334,
      "##activity": 5335,
      "leap": 5336,
      "legs": 5337,
      "clock": 5338,
      "clothing": 5339,
      "twitter": 5340,
      "##ables": 5341,
      "##abwe": 5342,
      "needle": 5343,
      "overl": 5344,
      "disord": 5345,
      "disaster": 5346,
      "herodotus": 5347,
      "coal": 5348,
      "background": 5349,
      "buff": 5350,
      "polls": 5351,
      "##eak": 5352,
      "##quet": 5353,
      "resin": 5354,
      "adul": 5355,
      "##lfriend": 5356,
      "##rier": 5357,
      "kinderg": 5358,
      "underwater": 5359,
      "underlying": 5360,
      "acceler": 5361,
      "granted": 5362,
      "scen": 5363,
      "blu": 5364,
      "rober": 5365,
      "deser": 5366,
      "mayor": 5367,
      "insurance": 5368,
      "consult": 5369,
      "players": 5370,
      "talks": 5371,
      "imagining": 5372,
      "afterno": 5373,
      "appeal": 5374,
      "trap": 5375,
      "trapped": 5376,
      "traffic": 5377,
      "incarcer": 5378,
      "##phones": 5379,
      "##enced": 5380,
      "drown": 5381,
      "guarant": 5382,
      "belong": 5383,
      "indian": 5384,
      "flat": 5385,
      "useless": 5386,
      "invite": 5387,
      "ending": 5388,
      "plank": 5389,
      "olds": 5390,
      "percentage": 5391,
      "farther": 5392,
      "##anged": 5393,
      "##angles": 5394,
      "founded": 5395,
      "meanwhile": 5396,
      "pointing": 5397,
      "##ception": 5398,
      "recy": 5399,
      "puzz": 5400,
      "cred": 5401,
      "transgender": 5402,
      "solid": 5403,
      "solving": 5404,
      "walks": 5405,
      "camps": 5406,
      "smallest": 5407,
      "stranger": 5408,
      "attract": 5409,
      "effic": 5410,
      "lessons": 5411,
      "sky": 5412,
      "config": 5413,
      "girlfriend": 5414,
      "passport": 5415,
      "charter": 5416,
      "producing": 5417,
      "physics": 5418,
      "curious": 5419,
      "subur": 5420,
      "muscle": 5421,
      "settle": 5422,
      "livingston": 5423,
      "crack": 5424,
      "stephen": 5425,
      "begins": 5426,
      "generated": 5427,
      "corpor": 5428,
      "structural": 5429,
      "location": 5430,
      "elimin": 5431,
      "valley": 5432,
      "farming": 5433,
      "profile": 5434,
      "##cript": 5435,
      "contrad": 5436,
      "direction": 5437,
      "brings": 5438,
      "vacant": 5439,
      "vacations": 5440,
      "viewed": 5441,
      "economist": 5442,
      "silic": 5443,
      "label": 5444,
      "##bris": 5445,
      "advice": 5446,
      "director": 5447,
      "directions": 5448,
      "2007": 5449,
      "escape": 5450,
      "switch": 5451,
      "swallow": 5452,
      "swann": 5453,
      "inclusive": 5454,
      "regime": 5455,
      "airport": 5456,
      "george": 5457,
      "animation": 5458,
      "biological": 5459,
      "##ometers": 5460,
      "ohio": 5461,
      "absor": 5462,
      "deadlines": 5463,
      "equip": 5464,
      "equival": 5465,
      "huh": 5466,
      "communications": 5467,
      "supercom": 5468,
      "lawyer": 5469,
      "followed": 5470,
      "educate": 5471,
      "potentially": 5472,
      "constitution": 5473,
      "supply": 5474,
      "excuse": 5475,
      "judged": 5476,
      "explains": 5477,
      "breakthrough": 5478,
      "defined": 5479,
      "dominated": 5480,
      "failing": 5481,
      "terrified": 5482,
      "sentences": 5483,
      "surviv": 5484,
      "messages": 5485,
      "stayed": 5486,
      "competition": 5487,
      "robots": 5488,
      "emerged": 5489,
      "traveling": 5490,
      "represents": 5491,
      "battle": 5492,
      "harlem": 5493,
      "cleaning": 5494,
      "2010": 5495,
      "facing": 5496,
      "faced": 5497,
      "massive": 5498,
      "hopeless": 5499,
      "parks": 5500,
      "##board": 5501,
      "mechanism": 5502,
      "results": 5503,
      "achievement": 5504,
      "eaten": 5505,
      "volume": 5506,
      "legal": 5507,
      "psychological": 5508,
      "element": 5509,
      "elevator": 5510,
      "occup": 5511,
      "flying": 5512,
      "illness": 5513,
      "illusion": 5514,
      "relevant": 5515,
      "released": 5516,
      "receive": 5517,
      "require": 5518,
      "safely": 5519,
      "productive": 5520,
      "causes": 5521,
      "privacy": 5522,
      "technique": 5523,
      "operating": 5524,
      "investment": 5525,
      "recorded": 5526,
      "packet": 5527,
      "mainly": 5528,
      "hyd": 5529,
      "tasks": 5530,
      "sprint": 5531,
      "flowers": 5532,
      "reaction": 5533,
      "surprised": 5534,
      "matching": 5535,
      "250": 5536,
      "danny": 5537,
      "dancing": 5538,
      "hunger": 5539,
      "logical": 5540,
      "thrive": 5541,
      "liberal": 5542,
      "liberals": 5543,
      "focused": 5544,
      "1980s": 5545,
      "1990s": 5546,
      "physicists": 5547,
      "pageant": 5548,
      "rule": 5549,
      "samples": 5550,
      "expression": 5551,
      "smartest": 5552,
      "campaign": 5553,
      "terrorist": 5554,
      "fault": 5555,
      "seriously": 5556,
      "proteins": 5557,
      "officer": 5558,
      "officers": 5559,
      "leadership": 5560,
      "birthday": 5561,
      "fingers": 5562,
      "laugh": 5563,
      "salt": 5564,
      "throwing": 5565,
      "##onym": 5566,
      "replace": 5567,
      "degrees": 5568,
      "printing": 5569,
      "resource": 5570,
      "admin": 5571,
      "bricks": 5572,
      "preparing": 5573,
      "functionality": 5574,
      "err": 5575,
      "initial": 5576,
      "contemporary": 5577,
      "colonoscop": 5578,
      "symbols": 5579,
      "mystery": 5580,
      "principles": 5581,
      "garbage": 5582,
      "latin": 5583,
      "conservative": 5584,
      "conservatives": 5585,
      "tremendously": 5586,
      "determination": 5587,
      "berlin": 5588,
      "budd": 5589,
      "repeat": 5590,
      "repeated": 5591,
      "dozen": 5592,
      "frankly": 5593,
      "intuition": 5594,
      "channel": 5595,
      "currently": 5596,
      "awareness": 5597,
      "optimism": 5598,
      "celebrate": 5599,
      "describing": 5600,
      "described": 5601,
      "bonobo": 5602,
      "gentle": 5603,
      "habitable": 5604,
      "libyan": 5605,
      "television": 5606,
      "employees": 5607,
      "diagnosis": 5608,
      "shocked": 5609,
      "independence": 5610,
      "paradox": 5611,
      "correlation": 5612,
      "phenomenon": 5613,
      "bags": 5614,
      "holograph": 5615,
      "jewish": 5616,
      "nutrition": 5617,
      "pedest": 5618,
      "exercise": 5619,
      "split": 5620,
      "teenagers": 5621,
      "fellows": 5622,
      "dispos": 5623,
      "precise": 5624,
      "adventure": 5625,
      "increasingly": 5626,
      "synthetic": 5627,
      "etc": 5628,
      "homeless": 5629,
      "mercy": 5630,
      "therapy": 5631,
      "coaches": 5632,
      "premature": 5633,
      "achieved": 5634,
      "molec": 5635,
      "concerned": 5636,
      "vehicle": 5637,
      "instructions": 5638,
      "slightly": 5639,
      "criminal": 5640,
      "networks": 5641,
      "acknowled": 5642,
      "sophisticated": 5643,
      "uncertainty": 5644,
      "photographer": 5645,
      "hormones": 5646,
      "advertising": 5647,
      "empath": 5648,
      "epidemic": 5649,
      "advocate": 5650,
      "regardless": 5651,
      "exclusion": 5652,
      "boyfriend": 5653,
      "encountered": 5654,
      "inequality": 5655,
      "mysterious": 5656,
      "dynamic": 5657,
      "jigsaw": 5658,
      "piano": 5659,
      "throat": 5660,
      "forgotten": 5661,
      "exhaust": 5662,
      "altar": 5663,
      "prosper": 5664,
      "unemploy": 5665,
      "cocoon": 5666,
      "commercial": 5667,
      "apparently": 5668,
      "attentive": 5669,
      "explosion": 5670,
      "correspond": 5671,
      "paralle": 5672,
      "downtown": 5673,
      "grocery": 5674,
      "jordan": 5675,
      "kitchen": 5676,
      "lestrade": 5677,
      "pivot": 5678,
      "wisdom": 5679,
      "zimbabwe": 5680,
      "stigma": 5681,
      "stadium": 5682,
      "whatsoever": 5683,
      "aluminum": 5684,
      "somewhat": 5685,
      "kindergarten": 5686,
      "equivalent": 5687,
      "supercomput": 5688,
      "holographic": 5689,
      "23": 5690,
      "70s": 5691,
      "ain": 5692,
      "ais": 5693,
      "ast": 5694,
      "aid": 5695,
      "awe": 5696,
      "biz": 5697,
      "backing": 5698,
      "cp": 5699,
      "cd": 5700,
      "cere": 5701,
      "cort": 5702,
      "cab": 5703,
      "cents": 5704,
      "cord": 5705,
      "corn": 5706,
      "cup": 5707,
      "du": 5708,
      "dial": 5709,
      "dread": 5710,
      "divid": 5711,
      "diving": 5712,
      "diction": 5713,
      "dumb": 5714,
      "dedic": 5715,
      "era": 5716,
      "fans": 5717,
      "file": 5718,
      "fib": 5719,
      "gal": 5720,
      "gain": 5721,
      "gren": 5722,
      "gates": 5723,
      "gross": 5724,
      "hong": 5725,
      "hood": 5726,
      "icon": 5727,
      "je": 5728,
      "jon": 5729,
      "jazz": 5730,
      "kong": 5731,
      "kof": 5732,
      "kicked": 5733,
      "lu": 5734,
      "len": 5735,
      "lect": 5736,
      "lass": 5737,
      "lens": 5738,
      "lago": 5739,
      "ml": 5740,
      "mri": 5741,
      "murd": 5742,
      "mesh": 5743,
      "nair": 5744,
      "nets": 5745,
      "nurs": 5746,
      "nether": 5747,
      "nfl": 5748,
      "naming": 5749,
      "pir": 5750,
      "pac": 5751,
      "port": 5752,
      "pand": 5753,
      "pals": 5754,
      "pier": 5755,
      "pairs": 5756,
      "pione": 5757,
      "rit": 5758,
      "rise": 5759,
      "sate": 5760,
      "tu": 5761,
      "ten": 5762,
      "tick": 5763,
      "tied": 5764,
      "tiss": 5765,
      "uh": 5766,
      "wore": 5767,
      "wire": 5768,
      "wise": 5769,
      "yard": 5770,
      "zones": 5771,
      "##ti": 5772,
      "##tic": 5773,
      "##talk": 5774,
      "##eve": 5775,
      "##eet": 5776,
      "##ients": 5777,
      "##nat": 5778,
      "##nem": 5779,
      "##gnos": 5780,
      "##lock": 5781,
      "##lank": 5782,
      "##fire": 5783,
      "##field": 5784,
      "##rich": 5785,
      "##riter": 5786,
      "##rane": 5787,
      "##ued": 5788,
      "##uge": 5789,
      "##oster": 5790,
      "##wal": 5791,
      "##walk": 5792,
      "##ky": 5793,
      "##dess": 5794,
      "##down": 5795,
      "##mith": 5796,
      "##mod": 5797,
      "##ba": 5798,
      "##bc": 5799,
      "##bour": 5800,
      "##bles": 5801,
      "##bled": 5802,
      "##ye": 5803,
      "##ystem": 5804,
      "##van": 5805,
      "##vest": 5806,
      "##vity": 5807,
      "##hh": 5808,
      "##ham": 5809,
      "##here": 5810,
      "##hib": 5811,
      "##zil": 5812,
      "##01": 5813,
      "##eral": 5814,
      "##ered": 5815,
      "##inot": 5816,
      "##inery": 5817,
      "##inarily": 5818,
      "##atics": 5819,
      "##atures": 5820,
      "##attered": 5821,
      "##ndrome": 5822,
      "ton": 5823,
      "##oned": 5824,
      "##once": 5825,
      "##anz": 5826,
      "##anze": 5827,
      "##oral": 5828,
      "##ords": 5829,
      "##alized": 5830,
      "inject": 5831,
      "##iser": 5832,
      "##isol": 5833,
      "##ister": 5834,
      "##isel": 5835,
      "##arr": 5836,
      "##arre": 5837,
      "##asis": 5838,
      "wel": 5839,
      "weather": 5840,
      "whales": 5841,
      "##icip": 5842,
      "##icles": 5843,
      "bee": 5844,
      "beer": 5845,
      "bearing": 5846,
      "beeth": 5847,
      "##owed": 5848,
      "##llite": 5849,
      "##llah": 5850,
      "##uty": 5851,
      "##uted": 5852,
      "reform": 5853,
      "haw": 5854,
      "##etary": 5855,
      "stare": 5856,
      "stri": 5857,
      "stiff": 5858,
      "##uri": 5859,
      "##urg": 5860,
      "##igate": 5861,
      "##igger": 5862,
      "##oplank": 5863,
      "ang": 5864,
      "analy": 5865,
      "height": 5866,
      "ash": 5867,
      "aside": 5868,
      "asia": 5869,
      "mend": 5870,
      "##ading": 5871,
      "##thood": 5872,
      "##thouse": 5873,
      "sher": 5874,
      "shit": 5875,
      "shut": 5876,
      "shining": 5877,
      "shuff": 5878,
      "shipped": 5879,
      "mos": 5880,
      "seeds": 5881,
      "worms": 5882,
      "chic": 5883,
      "chip": 5884,
      "choles": 5885,
      "chimp": 5886,
      "church": 5887,
      "##terol": 5888,
      "comic": 5889,
      "##raction": 5890,
      "##illy": 5891,
      "congr": 5892,
      "##ilty": 5893,
      "exile": 5894,
      "##ula": 5895,
      "peers": 5896,
      "##essing": 5897,
      "deploy": 5898,
      "debris": 5899,
      "##istor": 5900,
      "##isted": 5901,
      "ours": 5902,
      "prove": 5903,
      "prost": 5904,
      "prognos": 5905,
      "##iece": 5906,
      "triv": 5907,
      "trigger": 5908,
      "##ifest": 5909,
      "uses": 5910,
      "outs": 5911,
      "##osure": 5912,
      "##empt": 5913,
      "##unate": 5914,
      "enable": 5915,
      "envel": 5916,
      "enters": 5917,
      "enlight": 5918,
      "enrich": 5919,
      "spark": 5920,
      "spears": 5921,
      "##cipl": 5922,
      "someplace": 5923,
      "actors": 5924,
      "##using": 5925,
      "unable": 5926,
      "uncle": 5927,
      "feb": 5928,
      "##agree": 5929,
      "##arest": 5930,
      "##ooked": 5931,
      "evolve": 5932,
      "composition": 5933,
      "shells": 5934,
      "expon": 5935,
      "mang": 5936,
      "manifest": 5937,
      "hasn": 5938,
      "que": 5939,
      "quit": 5940,
      "amanda": 5941,
      "agre": 5942,
      "aging": 5943,
      "agencies": 5944,
      "league": 5945,
      "clap": 5946,
      "clouds": 5947,
      "clients": 5948,
      "tweet": 5949,
      "##abet": 5950,
      "phi": 5951,
      "loves": 5952,
      "discipl": 5953,
      "disagree": 5954,
      "perman": 5955,
      "perceived": 5956,
      "permission": 5957,
      "prior": 5958,
      "coin": 5959,
      "backs": 5960,
      "arms": 5961,
      "arrest": 5962,
      "buzz": 5963,
      "pool": 5964,
      "poem": 5965,
      "adren": 5966,
      "interface": 5967,
      "interplan": 5968,
      "##itely": 5969,
      "##rian": 5970,
      "##riage": 5971,
      "##ishment": 5972,
      "##eprint": 5973,
      "##rupt": 5974,
      "grind": 5975,
      "controll": 5976,
      "##gettable": 5977,
      "spelling": 5978,
      "scream": 5979,
      "scott": 5980,
      "blessed": 5981,
      "roots": 5982,
      "desk": 5983,
      "descend": 5984,
      "syndrome": 5985,
      "remi": 5986,
      "##icted": 5987,
      "helmet": 5988,
      "brazil": 5989,
      "download": 5990,
      "bonds": 5991,
      "womb": 5992,
      "plays": 5993,
      "apps": 5994,
      "##tych": 5995,
      "decor": 5996,
      "decide": 5997,
      "decline": 5998,
      "incident": 5999,
      "##ressed": 6000,
      "##ressive": 6001,
      "drives": 6002,
      "driven": 6003,
      "smile": 6004,
      "guest": 6005,
      "guilty": 6006,
      "facts": 6007,
      "storyte": 6008,
      "obst": 6009,
      "obama": 6010,
      "terra": 6011,
      "flood": 6012,
      "mont": 6013,
      "monarch": 6014,
      "foster": 6015,
      "##avio": 6016,
      "relate": 6017,
      "examine": 6018,
      "baseline": 6019,
      "slave": 6020,
      "reconst": 6021,
      "records": 6022,
      "interests": 6023,
      "informed": 6024,
      "glor": 6025,
      "glad": 6026,
      "transl": 6027,
      "transm": 6028,
      "naturally": 6029,
      "natanz": 6030,
      "england": 6031,
      "designer": 6032,
      "smaller": 6033,
      "strip": 6034,
      "attach": 6035,
      "carb": 6036,
      "extent": 6037,
      "exploring": 6038,
      "artific": 6039,
      "cleans": 6040,
      "minimize": 6041,
      "##onto": 6042,
      "subtle": 6043,
      "diginot": 6044,
      "funn": 6045,
      "functions": 6046,
      "warri": 6047,
      "fuk": 6048,
      "certific": 6049,
      "certified": 6050,
      "celled": 6051,
      "##neys": 6052,
      "brook": 6053,
      "paramed": 6054,
      "parole": 6055,
      "locations": 6056,
      "valves": 6057,
      "researchers": 6058,
      "reasonable": 6059,
      "amazingly": 6060,
      "marriage": 6061,
      "viral": 6062,
      "stops": 6063,
      "machinery": 6064,
      "architectural": 6065,
      "tedtalk": 6066,
      "woke": 6067,
      "organized": 6068,
      "##ographic": 6069,
      "specialist": 6070,
      "wins": 6071,
      "##nost": 6072,
      "objectively": 6073,
      "keeping": 6074,
      "feminists": 6075,
      "##ipper": 6076,
      "##ipping": 6077,
      "identified": 6078,
      "elected": 6079,
      "redef": 6080,
      "sexy": 6081,
      "advant": 6082,
      "advance": 6083,
      "collection": 6084,
      "directive": 6085,
      "2000": 6086,
      "2009": 6087,
      "deaths": 6088,
      "inclusion": 6089,
      "##uges": 6090,
      "regul": 6091,
      "workshop": 6092,
      "geomet": 6093,
      "honored": 6094,
      "killing": 6095,
      "increased": 6096,
      "...\"": 6097,
      "senses": 6098,
      "sensor": 6099,
      "##ocol": 6100,
      "communicating": 6101,
      "concepts": 6102,
      "allowing": 6103,
      "pleasure": 6104,
      "dropper": 6105,
      "judith": 6106,
      "judgment": 6107,
      "payload": 6108,
      "commonality": 6109,
      "embra": 6110,
      "buried": 6111,
      "provides": 6112,
      "providing": 6113,
      "collagen": 6114,
      "domin": 6115,
      "territory": 6116,
      "journeys": 6117,
      "refrig": 6118,
      "goddess": 6119,
      "supportive": 6120,
      "survived": 6121,
      "compete": 6122,
      "competing": 6123,
      "competitive": 6124,
      "emerging": 6125,
      "##coming": 6126,
      "##mitters": 6127,
      "combine": 6128,
      "darkness": 6129,
      "harm": 6130,
      "panc": 6131,
      "##flies": 6132,
      "cafe": 6133,
      "literature": 6134,
      "microp": 6135,
      "##nedy": 6136,
      "2014": 6137,
      "risky": 6138,
      "neighboring": 6139,
      "missed": 6140,
      "expected": 6141,
      "posted": 6142,
      "mechanical": 6143,
      "mechanisms": 6144,
      "professional": 6145,
      "sustainability": 6146,
      "technological": 6147,
      "capitalism": 6148,
      "transformed": 6149,
      "strongest": 6150,
      "mirror": 6151,
      "##aneously": 6152,
      "performed": 6153,
      "printer": 6154,
      "protected": 6155,
      "entrepreneur": 6156,
      "barrier": 6157,
      "receiving": 6158,
      "request": 6159,
      "required": 6160,
      "suicidal": 6161,
      "causing": 6162,
      "kennedy": 6163,
      "arrive": 6164,
      "opera": 6165,
      "operator": 6166,
      "investing": 6167,
      "targets": 6168,
      "approached": 6169,
      "ceos": 6170,
      "rainbow": 6171,
      "sending": 6172,
      "reminds": 6173,
      "reminder": 6174,
      "triptych": 6175,
      "cloudy": 6176,
      "diagn": 6177,
      "diagnost": 6178,
      "honestly": 6179,
      "microorgan": 6180,
      "banks": 6181,
      "estab": 6182,
      "estimate": 6183,
      "sleeve": 6184,
      "anti": 6185,
      "interactions": 6186,
      "fitness": 6187,
      "luckily": 6188,
      "##force": 6189,
      "thrown": 6190,
      "physicist": 6191,
      "radioactivity": 6192,
      "##lexible": 6193,
      "armstrong": 6194,
      "capture": 6195,
      "capturing": 6196,
      "magazines": 6197,
      "palestin": 6198,
      "sweat": 6199,
      "immers": 6200,
      "football": 6201,
      "motivation": 6202,
      "predicted": 6203,
      "predictable": 6204,
      "japanese": 6205,
      "divide": 6206,
      "printed": 6207,
      "prepare": 6208,
      "prepared": 6209,
      "appears": 6210,
      "courtroom": 6211,
      "graduated": 6212,
      "struggling": 6213,
      "discussion": 6214,
      "breathe": 6215,
      "hotel": 6216,
      "##going": 6217,
      "syrians": 6218,
      "lady": 6219,
      "ripped": 6220,
      "libraries": 6221,
      "canadian": 6222,
      "1970s": 6223,
      "journalist": 6224,
      "delivering": 6225,
      "21st": 6226,
      "ecological": 6227,
      "ethiop": 6228,
      "latest": 6229,
      "mathem": 6230,
      "toronto": 6231,
      "analysis": 6232,
      "intersection": 6233,
      "carrying": 6234,
      "universities": 6235,
      "determined": 6236,
      "significantly": 6237,
      "cyber": 6238,
      "cruel": 6239,
      "reveals": 6240,
      "interviews": 6241,
      "contribute": 6242,
      "icebergs": 6243,
      "fairly": 6244,
      "fascinated": 6245,
      "sadly": 6246,
      "depend": 6247,
      "trucks": 6248,
      "spectrum": 6249,
      "emotionally": 6250,
      "diagnoses": 6251,
      "flew": 6252,
      "kilometers": 6253,
      "mortem": 6254,
      "mortality": 6255,
      "odds": 6256,
      "abundance": 6257,
      "defeat": 6258,
      "defend": 6259,
      "enables": 6260,
      "dramatically": 6261,
      "prototype": 6262,
      "boundary": 6263,
      "hologram": 6264,
      "jewel": 6265,
      "renew": 6266,
      "##metry": 6267,
      "christmas": 6268,
      "fatal": 6269,
      "greek": 6270,
      "gathered": 6271,
      "vibrating": 6272,
      "androgen": 6273,
      "shrimp": 6274,
      "shelter": 6275,
      "primitive": 6276,
      "centrifuge": 6277,
      "centrifuges": 6278,
      "silkworms": 6279,
      "guns": 6280,
      "ripley": 6281,
      "wedding": 6282,
      "lifted": 6283,
      "healing": 6284,
      "savior": 6285,
      "adopt": 6286,
      "interpre": 6287,
      "academy": 6288,
      "induction": 6289,
      "fundamentally": 6290,
      "scholarship": 6291,
      "overwhelmed": 6292,
      "breaking": 6293,
      "fifth": 6294,
      "octavio": 6295,
      "##ciliation": 6296,
      "tower": 6297,
      "anxiety": 6298,
      "suitcase": 6299,
      "britney": 6300,
      "entitled": 6301,
      "reconciliation": 6302,
      "attributes": 6303,
      "circumstances": 6304,
      "influence": 6305,
      "virtuosos": 6306,
      "azuri": 6307,
      "cousins": 6308,
      "mascul": 6309,
      "russian": 6310,
      "troj": 6311,
      "stroke": 6312,
      "dosages": 6313,
      "ancestors": 6314,
      "atmosph": 6315,
      "tribal": 6316,
      "comparative": 6317,
      "persever": 6318,
      "patriarchal": 6319,
      "paralyzed": 6320,
      "specifically": 6321,
      "restaurant": 6322,
      "military": 6323,
      "panpsychist": 6324,
      "ridiculous": 6325,
      "initiative": 6326,
      "symphony": 6327,
      "quarterback": 6328,
      "gangst": 6329,
      "squee": 6330,
      "waters": 6331,
      "yellow": 6332,
      "aspects": 6333,
      "orientation": 6334,
      "unforgettable": 6335,
      "component": 6336,
      "adulthood": 6337,
      "blueprint": 6338,
      "afternoon": 6339,
      "incarceration": 6340,
      "guarantee": 6341,
      "eliminate": 6342,
      "##cription": 6343,
      "silicon": 6344,
      "##onymous": 6345,
      "disposal": 6346,
      "supercomputer": 6347,
      "bizarre": 6348,
      "cortisol": 6349,
      "corners": 6350,
      "grenade": 6351,
      "kofi": 6352,
      "length": 6353,
      "lassa": 6354,
      "lagoon": 6355,
      "nairobi": 6356,
      "netherlands": 6357,
      "pacific": 6358,
      "palsy": 6359,
      "ritual": 6360,
      "satellite": 6361,
      "##anzees": 6362,
      "beethoven": 6363,
      "##oplankton": 6364,
      "cholesterol": 6365,
      "chimpanzees": 6366,
      "congrat": 6367,
      "prognosis": 6368,
      "envelope": 6369,
      "adrenal": 6370,
      "interplanetary": 6371,
      "diginotar": 6372,
      "refriger": 6373,
      "microorganisms": 6374,
      "atmosphere": 6375,
      "\"]": 6376,
      ".'": 6377,
      ".[\"": 6378,
      "30s": 6379,
      "45": 6380,
      "56": 6381,
      "60s": 6382,
      "],": 6383,
      "][\"": 6384,
      "ald": 6385,
      "apt": 6386,
      "award": 6387,
      "awards": 6388,
      "austr": 6389,
      "aeds": 6390,
      "ba": 6391,
      "bin": 6392,
      "bay": 6393,
      "bol": 6394,
      "bil": 6395,
      "bure": 6396,
      "band": 6397,
      "bass": 6398,
      "bother": 6399,
      "bible": 6400,
      "bang": 6401,
      "bio": 6402,
      "bones": 6403,
      "bapt": 6404,
      "cop": 6405,
      "cave": 6406,
      "dil": 6407,
      "dau": 6408,
      "dict": 6409,
      "dav": 6410,
      "daring": 6411,
      "drove": 6412,
      "density": 6413,
      "eld": 6414,
      "ears": 6415,
      "fm": 6416,
      "fet": 6417,
      "fits": 6418,
      "fires": 6419,
      "fought": 6420,
      "flexible": 6421,
      "gary": 6422,
      "ghan": 6423,
      "hers": 6424,
      "hence": 6425,
      "hud": 6426,
      "hire": 6427,
      "hating": 6428,
      "hars": 6429,
      "hitting": 6430,
      "hunch": 6431,
      "ju": 6432,
      "jen": 6433,
      "jav": 6434,
      "july": 6435,
      "jimm": 6436,
      "ka": 6437,
      "kep": 6438,
      "kick": 6439,
      "kath": 6440,
      "kiss": 6441,
      "khan": 6442,
      "lit": 6443,
      "lic": 6444,
      "lists": 6445,
      "mg": 6446,
      "mc": 6447,
      "mad": 6448,
      "mart": 6449,
      "merc": 6450,
      "mothers": 6451,
      "ner": 6452,
      "nos": 6453,
      "nap": 6454,
      "nud": 6455,
      "nations": 6456,
      "ought": 6457,
      "pit": 6458,
      "pav": 6459,
      "punch": 6460,
      "pestic": 6461,
      "pores": 6462,
      "poured": 6463,
      "papers": 6464,
      "rt": 6465,
      "rail": 6466,
      "rural": 6467,
      "si": 6468,
      "sir": 6469,
      "sess": 6470,
      "sick": 6471,
      "sno": 6472,
      "silly": 6473,
      "tear": 6474,
      "ties": 6475,
      "uter": 6476,
      "vig": 6477,
      "vital": 6478,
      "ward": 6479,
      "wand": 6480,
      "wool": 6481,
      "yo": 6482,
      "yog": 6483,
      "zipper": 6484,
      "##eared": 6485,
      "##pass": 6486,
      "##iversity": 6487,
      "##iency": 6488,
      "##nown": 6489,
      "##gl": 6490,
      "##gu": 6491,
      "##gon": 6492,
      "##ax": 6493,
      "##lif": 6494,
      "##lph": 6495,
      "##rm": 6496,
      "##rid": 6497,
      "##rust": 6498,
      "##rical": 6499,
      "##rations": 6500,
      "##rants": 6501,
      "##uine": 6502,
      "##ully": 6503,
      "##ugg": 6504,
      "##uitive": 6505,
      "##ov": 6506,
      "##off": 6507,
      "##oids": 6508,
      "##known": 6509,
      "##del": 6510,
      "##mm": 6511,
      "##mly": 6512,
      "##math": 6513,
      "##bing": 6514,
      "##bes": 6515,
      "##bas": 6516,
      "##bble": 6517,
      "##bell": 6518,
      "##yers": 6519,
      "##ygen": 6520,
      "##vasive": 6521,
      "##hance": 6522,
      "##house": 6523,
      "##hatt": 6524,
      "##zing": 6525,
      "##zbo": 6526,
      "thus": 6527,
      "thigh": 6528,
      "theories": 6529,
      "therm": 6530,
      "##atical": 6531,
      "##atri": 6532,
      "##ndar": 6533,
      "##real": 6534,
      "##rels": 6535,
      "tong": 6536,
      "tone": 6537,
      "toxic": 6538,
      "##ena": 6539,
      "##enment": 6540,
      "##enance": 6541,
      "##enfr": 6542,
      "##ona": 6543,
      "##oning": 6544,
      "##onies": 6545,
      "##onides": 6546,
      "##esy": 6547,
      "##ora": 6548,
      "##ority": 6549,
      "##orpor": 6550,
      "##alf": 6551,
      "##eday": 6552,
      "##edience": 6553,
      "##edded": 6554,
      "inch": 6555,
      "incent": 6556,
      "infr": 6557,
      "inhab": 6558,
      "##itating": 6559,
      "##itably": 6560,
      "##itement": 6561,
      "##aras": 6562,
      "##arity": 6563,
      "##omach": 6564,
      "##asi": 6565,
      "##asant": 6566,
      "weigh": 6567,
      "##leans": 6568,
      "##lete": 6569,
      "whe": 6570,
      "item": 6571,
      "##icill": 6572,
      "##icate": 6573,
      "bell": 6574,
      "bech": 6575,
      "##ller": 6576,
      "##utal": 6577,
      "##lyn": 6578,
      "revers": 6579,
      "recover": 6580,
      "reef": 6581,
      "isra": 6582,
      "islands": 6583,
      "##stig": 6584,
      "##eters": 6585,
      "ongoing": 6586,
      "##ctor": 6587,
      "##ays": 6588,
      "stan": 6589,
      "stere": 6590,
      "stead": 6591,
      "sticking": 6592,
      "stomach": 6593,
      "stasi": 6594,
      "sole": 6595,
      "soaking": 6596,
      "##idential": 6597,
      "##urt": 6598,
      "##uration": 6599,
      "##urable": 6600,
      "##chin": 6601,
      "formed": 6602,
      "##amin": 6603,
      "##amps": 6604,
      "##cel": 6605,
      "##cell": 6606,
      "##ceive": 6607,
      "limb": 6608,
      "liked": 6609,
      "livest": 6610,
      "##kelet": 6611,
      "##keley": 6612,
      "##ima": 6613,
      "##imag": 6614,
      "dolph": 6615,
      "##oped": 6616,
      "anth": 6617,
      "anton": 6618,
      "anonymous": 6619,
      "##olen": 6620,
      "##olit": 6621,
      "##olate": 6622,
      "hello": 6623,
      "hezbo": 6624,
      "abol": 6625,
      "aband": 6626,
      "abused": 6627,
      "asian": 6628,
      "##advant": 6629,
      "butter": 6630,
      "shak": 6631,
      "moore": 6632,
      "moves": 6633,
      "neat": 6634,
      "neural": 6635,
      "nearest": 6636,
      "seed": 6637,
      "sends": 6638,
      "##rog": 6639,
      "cham": 6640,
      "chos": 6641,
      "chord": 6642,
      "chisel": 6643,
      "##tering": 6644,
      "##teries": 6645,
      "##terday": 6646,
      "comments": 6647,
      "comfort": 6648,
      "##rah": 6649,
      "atom": 6650,
      "canals": 6651,
      "somalia": 6652,
      "someday": 6653,
      "##ille": 6654,
      "##ilized": 6655,
      "exos": 6656,
      "extern": 6657,
      "excell": 6658,
      "##ulating": 6659,
      "##ulously": 6660,
      "pew": 6661,
      "peek": 6662,
      "dece": 6663,
      "deck": 6664,
      "degr": 6665,
      "defic": 6666,
      "##pping": 6667,
      "orleans": 6668,
      "##istent": 6669,
      "##arted": 6670,
      "alice": 6671,
      "align": 6672,
      "proved": 6673,
      "##ievable": 6674,
      "trial": 6675,
      "##ifies": 6676,
      "##umen": 6677,
      "##umps": 6678,
      "knob": 6679,
      "outcome": 6680,
      "##osing": 6681,
      "##osoph": 6682,
      "##emakers": 6683,
      "placing": 6684,
      "##unction": 6685,
      "enem": 6686,
      "enroll": 6687,
      "enhance": 6688,
      "span": 6689,
      "spag": 6690,
      "nowhere": 6691,
      "##elange": 6692,
      "##odiversity": 6693,
      "upset": 6694,
      "##ains": 6695,
      "sup": 6696,
      "suff": 6697,
      "susp": 6698,
      "##apia": 6699,
      "##asting": 6700,
      "##astruct": 6701,
      "##usual": 6702,
      "tag": 6703,
      "##izz": 6704,
      "##izer": 6705,
      "seeking": 6706,
      "unh": 6707,
      "uncover": 6708,
      "unbel": 6709,
      "uncons": 6710,
      "unusual": 6711,
      "##agos": 6712,
      "veget": 6713,
      "manhatt": 6714,
      "quote": 6715,
      "amm": 6716,
      "amuse": 6717,
      "aggress": 6718,
      "aggreg": 6719,
      "##ourish": 6720,
      "lean": 6721,
      "claw": 6722,
      "twist": 6723,
      "worker": 6724,
      "##aba": 6725,
      "##udes": 6726,
      "phase": 6727,
      "phyt": 6728,
      "locked": 6729,
      "overc": 6730,
      "overcoming": 6731,
      "diss": 6732,
      "disk": 6733,
      "disem": 6734,
      "discr": 6735,
      "disconnect": 6736,
      "disenfr": 6737,
      "disadvant": 6738,
      "perpet": 6739,
      "pervasive": 6740,
      "happily": 6741,
      "pride": 6742,
      "prime": 6743,
      "realism": 6744,
      "realizing": 6745,
      "##berman": 6746,
      "##berries": 6747,
      "aff": 6748,
      "idiot": 6749,
      "backwards": 6750,
      "##owner": 6751,
      "bull": 6752,
      "buck": 6753,
      "poll": 6754,
      "parties": 6755,
      "##ptoms": 6756,
      "##quit": 6757,
      "resident": 6758,
      "resume": 6759,
      "residents": 6760,
      "adequ": 6761,
      "interior": 6762,
      "##soon": 6763,
      "##ensively": 6764,
      "##ensils": 6765,
      "commission": 6766,
      "impl": 6767,
      "impr": 6768,
      "implic": 6769,
      "imposed": 6770,
      "implement": 6771,
      "acqu": 6772,
      "##ruary": 6773,
      "grat": 6774,
      "grid": 6775,
      "gritt": 6776,
      "grass": 6777,
      "contract": 6778,
      "lettu": 6779,
      "scout": 6780,
      "score": 6781,
      "scores": 6782,
      "brows": 6783,
      "brutal": 6784,
      "blame": 6785,
      "blown": 6786,
      "##intuitive": 6787,
      "emph": 6788,
      "hump": 6789,
      "humble": 6790,
      "humidity": 6791,
      "prev": 6792,
      "pretend": 6793,
      "preval": 6794,
      "prestig": 6795,
      "removed": 6796,
      "colored": 6797,
      "bravery": 6798,
      "boom": 6799,
      "insult": 6800,
      "consent": 6801,
      "consol": 6802,
      "consistent": 6803,
      "##conds": 6804,
      "wrist": 6805,
      "##lected": 6806,
      "trace": 6807,
      "traff": 6808,
      "incorpor": 6809,
      "##well": 6810,
      "guid": 6811,
      "studio": 6812,
      "obl": 6813,
      "obedience": 6814,
      "offs": 6815,
      "instrum": 6816,
      "fewer": 6817,
      "simulate": 6818,
      "simonides": 6819,
      "flip": 6820,
      "flaw": 6821,
      "flaming": 6822,
      "kidney": 6823,
      "involve": 6824,
      "genoc": 6825,
      "genius": 6826,
      "genuine": 6827,
      "monum": 6828,
      "remembers": 6829,
      "fox": 6830,
      "foots": 6831,
      "entr": 6832,
      "##avors": 6833,
      "reliable": 6834,
      "medium": 6835,
      "importance": 6836,
      "questioning": 6837,
      "pointed": 6838,
      "##fuels": 6839,
      "recom": 6840,
      "recru": 6841,
      "crank": 6842,
      "gaming": 6843,
      "pup": 6844,
      "capsu": 6845,
      "glow": 6846,
      "transistor": 6847,
      "bitumen": 6848,
      "courthouse": 6849,
      "hardly": 6850,
      "194": 6851,
      "19th": 6852,
      "completed": 6853,
      "governance": 6854,
      "attitude": 6855,
      "attempt": 6856,
      "carefully": 6857,
      "homework": 6858,
      "homeowner": 6859,
      "meta": 6860,
      "metamor": 6861,
      "metaph": 6862,
      "skins": 6863,
      "weeke": 6864,
      "confusing": 6865,
      "carc": 6866,
      "carries": 6867,
      "highway": 6868,
      "lighting": 6869,
      "extract": 6870,
      "extinct": 6871,
      "extinction": 6872,
      "explode": 6873,
      "reports": 6874,
      "repub": 6875,
      "repatri": 6876,
      "trusted": 6877,
      "particle": 6878,
      "sounding": 6879,
      "hopeful": 6880,
      "##redict": 6881,
      "##ervation": 6882,
      "passing": 6883,
      "clever": 6884,
      "eastern": 6885,
      "processes": 6886,
      "##ontin": 6887,
      "behave": 6888,
      "curse": 6889,
      "curves": 6890,
      "##ginia": 6891,
      "runner": 6892,
      "viable": 6893,
      "waited": 6894,
      "##easy": 6895,
      "digit": 6896,
      "digest": 6897,
      "computing": 6898,
      "warm": 6899,
      "warning": 6900,
      "cracks": 6901,
      "diverse": 6902,
      "diabet": 6903,
      "fuels": 6904,
      "tyr": 6905,
      "visible": 6906,
      "visiting": 6907,
      "distort": 6908,
      "distinguish": 6909,
      "generally": 6910,
      "connects": 6911,
      "testing": 6912,
      "testes": 6913,
      "testoster": 6914,
      "located": 6915,
      "researcher": 6916,
      "dreaming": 6917,
      "margin": 6918,
      "virginia": 6919,
      "cultural": 6920,
      "##cycle": 6921,
      "chef": 6922,
      "##cray": 6923,
      "organizing": 6924,
      "protocol": 6925,
      "sites": 6926,
      "treaties": 6927,
      "##ippines": 6928,
      "musician": 6929,
      "economics": 6930,
      "trend": 6931,
      "treas": 6932,
      "trends": 6933,
      "wonderland": 6934,
      "2006": 6935,
      "2008": 6936,
      "esc": 6937,
      "assume": 6938,
      "yesterday": 6939,
      "regret": 6940,
      "geena": 6941,
      "##liest": 6942,
      "biom": 6943,
      "freud": 6944,
      "absurd": 6945,
      "propose": 6946,
      "equations": 6947,
      "equality": 6948,
      "raises": 6949,
      "##ended": 6950,
      "urge": 6951,
      "demands": 6952,
      "superp": 6953,
      "shortcut": 6954,
      "roads": 6955,
      "ordered": 6956,
      "elsewhere": 6957,
      "offering": 6958,
      "excitement": 6959,
      "termin": 6960,
      "photographed": 6961,
      "##cca": 6962,
      "embedded": 6963,
      "burst": 6964,
      "breaks": 6965,
      "define": 6966,
      "defines": 6967,
      "defense": 6968,
      "provin": 6969,
      "terrifying": 6970,
      "casc": 6971,
      "landed": 6972,
      "innocent": 6973,
      "supporting": 6974,
      "beyonce": 6975,
      "stays": 6976,
      "competent": 6977,
      "emergent": 6978,
      "calcul": 6979,
      "devast": 6980,
      "##ushima": 6981,
      "believing": 6982,
      "batting": 6983,
      "circles": 6984,
      "fireflies": 6985,
      "statin": 6986,
      "largely": 6987,
      "shooting": 6988,
      "conduct": 6989,
      "facilities": 6990,
      "horr": 6991,
      "horse": 6992,
      "##making": 6993,
      "chemistry": 6994,
      "expecting": 6995,
      "expectations": 6996,
      "hoping": 6997,
      "hoped": 6998,
      "medications": 6999,
      "innovative": 7000,
      "186": 7001,
      "fears": 7002,
      "depth": 7003,
      "depression": 7004,
      "lego": 7005,
      "discovery": 7006,
      "bloody": 7007,
      "technologists": 7008,
      "transforming": 7009,
      "transformation": 7010,
      "hospitals": 7011,
      "psychologist": 7012,
      "cutting": 7013,
      "opposed": 7014,
      "princess": 7015,
      "memorized": 7016,
      "editor": 7017,
      "fastest": 7018,
      "touched": 7019,
      "screens": 7020,
      "observe": 7021,
      "obsession": 7022,
      "obscure": 7023,
      "critic": 7024,
      "extraordinarily": 7025,
      "penicill": 7026,
      "progressive": 7027,
      "expertise": 7028,
      "approaches": 7029,
      "ceo": 7030,
      "categor": 7031,
      "category": 7032,
      "stores": 7033,
      "promised": 7034,
      "reminding": 7035,
      "recording": 7036,
      "virtue": 7037,
      "representing": 7038,
      "representatives": 7039,
      "packs": 7040,
      "mainst": 7041,
      "hyster": 7042,
      "deliber": 7043,
      "introduction": 7044,
      "pulling": 7045,
      "broadly": 7046,
      "viruses": 7047,
      "thousandfold": 7048,
      "banquet": 7049,
      "tastemakers": 7050,
      "wearable": 7051,
      "antib": 7052,
      "anticip": 7053,
      "maintenance": 7054,
      "argue": 7055,
      "interaction": 7056,
      "scanning": 7057,
      "screening": 7058,
      "114": 7059,
      "##raceful": 7060,
      "1980": 7061,
      "1990": 7062,
      "130": 7063,
      "grounds": 7064,
      "riding": 7065,
      "expressed": 7066,
      "experimenting": 7067,
      "athlete": 7068,
      "gardens": 7069,
      "laid": 7070,
      "lowering": 7071,
      "palm": 7072,
      "palace": 7073,
      "##bby": 7074,
      "##ynth": 7075,
      "threats": 7076,
      "starvation": 7077,
      "sticks": 7078,
      "selling": 7079,
      "immig": 7080,
      "official": 7081,
      "reduction": 7082,
      "reducing": 7083,
      "jumped": 7084,
      "manufactured": 7085,
      "admire": 7086,
      "emails": 7087,
      "accountability": 7088,
      "opposition": 7089,
      "announce": 7090,
      "platforms": 7091,
      "discussions": 7092,
      "error": 7093,
      "miscond": 7094,
      "miserable": 7095,
      "searching": 7096,
      "syrian": 7097,
      "colonial": 7098,
      "collaboration": 7099,
      "encouraged": 7100,
      "bullets": 7101,
      "suggests": 7102,
      "177": 7103,
      "arabs": 7104,
      "borders": 7105,
      "diner": 7106,
      "piles": 7107,
      "tunis": 7108,
      "tackling": 7109,
      "uganda": 7110,
      "convention": 7111,
      "empowering": 7112,
      "entropy": 7113,
      "1970": 7114,
      "responsible": 7115,
      "delivered": 7116,
      "ethical": 7117,
      "torn": 7118,
      "consumed": 7119,
      "societal": 7120,
      "mountains": 7121,
      "berkeley": 7122,
      "cycle": 7123,
      "fraud": 7124,
      "documented": 7125,
      "sequence": 7126,
      "selected": 7127,
      "delay": 7128,
      "philosoph": 7129,
      "philippines": 7130,
      "contribut": 7131,
      "folds": 7132,
      "celebrated": 7133,
      "sleeping": 7134,
      "witnessed": 7135,
      "fortunately": 7136,
      "fortunate": 7137,
      "libya": 7138,
      "depends": 7139,
      "depending": 7140,
      "symptoms": 7141,
      "historical": 7142,
      "historian": 7143,
      "johns": 7144,
      "accomplished": 7145,
      "wheelchairs": 7146,
      "casting": 7147,
      "mantas": 7148,
      "odd": 7149,
      "rotor": 7150,
      "tightly": 7151,
      "utter": 7152,
      "utensils": 7153,
      "wiki": 7154,
      "enabled": 7155,
      "leaving": 7156,
      "speeches": 7157,
      "declined": 7158,
      "declared": 7159,
      "paradig": 7160,
      "prototyping": 7161,
      "assigned": 7162,
      "continued": 7163,
      "rapidly": 7164,
      "hanging": 7165,
      "pursuit": 7166,
      "tension": 7167,
      "##aurus": 7168,
      "privileged": 7169,
      "arabic": 7170,
      "cookie": 7171,
      "cowshed": 7172,
      "racism": 7173,
      "zambia": 7174,
      "referred": 7175,
      "isolation": 7176,
      "heavy": 7177,
      "unpredict": 7178,
      "ambition": 7179,
      "relatively": 7180,
      "detected": 7181,
      "swimming": 7182,
      "assistant": 7183,
      "assistance": 7184,
      "achieving": 7185,
      "rebuilding": 7186,
      "mike": 7187,
      "michelange": 7188,
      "rabbit": 7189,
      "tallest": 7190,
      "shifting": 7191,
      "adopted": 7192,
      "simplistic": 7193,
      "automatically": 7194,
      "fundamentals": 7195,
      "binder": 7196,
      "fabric": 7197,
      "fabulous": 7198,
      "gearsh": 7199,
      "lyd": 7200,
      "purely": 7201,
      "##hetti": 7202,
      "stems": 7203,
      "limitations": 7204,
      "shouted": 7205,
      "disgraceful": 7206,
      "singularity": 7207,
      "accurate": 7208,
      "accuracy": 7209,
      "disturbed": 7210,
      "demonstrate": 7211,
      "collapses": 7212,
      "experiments": 7213,
      "inevitable": 7214,
      "fantasy": 7215,
      "launching": 7216,
      "counterintuitive": 7217,
      "accomplishments": 7218,
      "skeptical": 7219,
      "oxygen": 7220,
      "sacr": 7221,
      "venture": 7222,
      "thesaurus": 7223,
      "limited": 7224,
      "semi": 7225,
      "seventh": 7226,
      "frightening": 7227,
      "framework": 7228,
      "sunday": 7229,
      "actuating": 7230,
      "quotes": 7231,
      "adapted": 7232,
      "scratch": 7233,
      "imaginative": 7234,
      "polarized": 7235,
      "grabbing": 7236,
      "explanations": 7237,
      "specimen": 7238,
      "definition": 7239,
      "facilit": 7240,
      "estimates": 7241,
      "neuroscientist": 7242,
      "contemplating": 7243,
      "fragments": 7244,
      "millennium": 7245,
      "candidates": 7246,
      "cooperation": 7247,
      "bicycle": 7248,
      "kahnem": 7249,
      "punishment": 7250,
      "sardine": 7251,
      "tilapia": 7252,
      "##iatric": 7253,
      "threads": 7254,
      "insecure": 7255,
      "melbour": 7256,
      "delicious": 7257,
      "sponsor": 7258,
      "sahara": 7259,
      "worldviews": 7260,
      "unlear": 7261,
      "expeditions": 7262,
      "disorders": 7263,
      "robert": 7264,
      "deserves": 7265,
      "plankton": 7266,
      "recyc": 7267,
      "puzzle": 7268,
      "efficient": 7269,
      "equipment": 7270,
      "constitutional": 7271,
      "hopelessness": 7272,
      "errors": 7273,
      "colonoscopy": 7274,
      "repeatedly": 7275,
      "gentleman": 7276,
      "molecules": 7277,
      "acknowledging": 7278,
      "empathy": 7279,
      "unemployment": 7280,
      "parallel": 7281,
      "aisle": 7282,
      "divided": 7283,
      "dictionary": 7284,
      "dedicated": 7285,
      "nurses": 7286,
      "pandora": 7287,
      "tissue": 7288,
      "welcome": 7289,
      "hawking": 7290,
      "trivial": 7291,
      "enlightenment": 7292,
      "february": 7293,
      "agreed": 7294,
      "permanently": 7295,
      "controlled": 7296,
      "obstac": 7297,
      "carbon": 7298,
      "artificial": 7299,
      "warrior": 7300,
      "fukushima": 7301,
      "brooklyn": 7302,
      "advantage": 7303,
      "geometry": 7304,
      "pancake": 7305,
      "entrepreneurial": 7306,
      "palestinian": 7307,
      "ethiopia": 7308,
      "trojan": 7309,
      "gangsta": 7310,
      "squeeze": 7311,
      "bureau": 7312,
      "biofuels": 7313,
      "daunt": 7314,
      "david": 7315,
      "fmri": 7316,
      "ghana": 7317,
      "harsh": 7318,
      "jimmy": 7319,
      "kepler": 7320,
      "license": 7321,
      "nosair": 7322,
      "napole": 7323,
      "pavil": 7324,
      "sessions": 7325,
      "uterus": 7326,
      "incentives": 7327,
      "infrastruct": 7328,
      "bechdel": 7329,
      "israel": 7330,
      "stereoty": 7331,
      "steady": 7332,
      "livestock": 7333,
      "dolphins": 7334,
      "hezbollah": 7335,
      "chosen": 7336,
      "exoskelet": 7337,
      "external": 7338,
      "spaghetti": 7339,
      "unbelievable": 7340,
      "manhattan": 7341,
      "phytoplankton": 7342,
      "disenfranch": 7343,
      "lettuce": 7344,
      "flamingos": 7345,
      "genocide": 7346,
      "footscray": 7347,
      "capsule": 7348,
      "metamorph": 7349,
      "republic": 7350,
      "repatriated": 7351,
      "testosterone": 7352,
      "calculated": 7353,
      "penicillin": 7354,
      "misconduct": 7355,
      "michelangelo": 7356,
      "kahneman": 7357,
      "melbourne": 7358,
      "infrastructure": 7359,
      "31": 7360,
      "49": 7361,
      "54": 7362,
      "52": 7363,
      "72": 7364,
      "85": 7365,
      "90s": 7366,
      "ah": 7367,
      "aps": 7368,
      "apr": 7369,
      "aster": 7370,
      "bes": 7371,
      "boo": 7372,
      "bark": 7373,
      "bread": 7374,
      "bands": 7375,
      "baff": 7376,
      "bribe": 7377,
      "borrow": 7378,
      "busted": 7379,
      "cro": 7380,
      "cul": 7381,
      "cart": 7382,
      "cree": 7383,
      "cash": 7384,
      "cats": 7385,
      "coding": 7386,
      "dw": 7387,
      "der": 7388,
      "dor": 7389,
      "dies": 7390,
      "dry": 7391,
      "dense": 7392,
      "dots": 7393,
      "dude": 7394,
      "dimin": 7395,
      "dirty": 7396,
      "dump": 7397,
      "dye": 7398,
      "eq": 7399,
      "fou": 7400,
      "fay": 7401,
      "fest": 7402,
      "furn": 7403,
      "foss": 7404,
      "fitting": 7405,
      "fills": 7406,
      "ferm": 7407,
      "gi": 7408,
      "gn": 7409,
      "gm": 7410,
      "gon": 7411,
      "gop": 7412,
      "gaz": 7413,
      "gps": 7414,
      "gala": 7415,
      "gorge": 7416,
      "hes": 7417,
      "han": 7418,
      "hind": 7419,
      "hous": 7420,
      "hook": 7421,
      "hint": 7422,
      "honey": 7423,
      "ii": 7424,
      "ib": 7425,
      "iv": 7426,
      "ios": 7427,
      "jes": 7428,
      "jac": 7429,
      "jose": 7430,
      "jaw": 7431,
      "june": 7432,
      "jung": 7433,
      "kam": 7434,
      "kim": 7435,
      "kimm": 7436,
      "lon": 7437,
      "les": 7438,
      "lion": 7439,
      "lem": 7440,
      "lun": 7441,
      "lone": 7442,
      "lud": 7443,
      "lope": 7444,
      "laz": 7445,
      "lately": 7446,
      "lane": 7447,
      "lacking": 7448,
      "mk": 7449,
      "mice": 7450,
      "mines": 7451,
      "mps": 7452,
      "males": 7453,
      "mamm": 7454,
      "mmm": 7455,
      "na": 7456,
      "nic": 7457,
      "nig": 7458,
      "nile": 7459,
      "nak": 7460,
      "ngo": 7461,
      "nourish": 7462,
      "pity": 7463,
      "pater": 7464,
      "penc": 7465,
      "pale": 7466,
      "porn": 7467,
      "powers": 7468,
      "rw": 7469,
      "rh": 7470,
      "ral": 7471,
      "rent": 7472,
      "rally": 7473,
      "rang": 7474,
      "rank": 7475,
      "roses": 7476,
      "sau": 7477,
      "sire": 7478,
      "sizes": 7479,
      "tib": 7480,
      "tense": 7481,
      "tangles": 7482,
      "um": 7483,
      "vas": 7484,
      "vents": 7485,
      "vivid": 7486,
      "voting": 7487,
      "veter": 7488,
      "wra": 7489,
      "wars": 7490,
      "wired": 7491,
      "wats": 7492,
      "wrap": 7493,
      "ze": 7494,
      "##took": 7495,
      "##tled": 7496,
      "##tling": 7497,
      "##ec": 7498,
      "##ey": 7499,
      "##eid": 7500,
      "##eem": 7501,
      "##east": 7502,
      "##eks": 7503,
      "##pack": 7504,
      "##parent": 7505,
      "##ports": 7506,
      "##pox": 7507,
      "##piece": 7508,
      "##ike": 7509,
      "##iard": 7510,
      "##iated": 7511,
      "##gm": 7512,
      "##ghing": 7513,
      "##gens": 7514,
      "##goles": 7515,
      "##aos": 7516,
      "##aves": 7517,
      "##aiss": 7518,
      "##aques": 7519,
      "##aires": 7520,
      "##lu": 7521,
      "##lim": 7522,
      "##lished": 7523,
      "##laim": 7524,
      "##fly": 7525,
      "##fig": 7526,
      "##fall": 7527,
      "##fits": 7528,
      "##furt": 7529,
      "##function": 7530,
      "##rin": 7531,
      "##ring": 7532,
      "##rist": 7533,
      "##rans": 7534,
      "##rict": 7535,
      "##rics": 7536,
      "##rates": 7537,
      "##cs": 7538,
      "##cion": 7539,
      "##cking": 7540,
      "##cution": 7541,
      "##uity": 7542,
      "##uade": 7543,
      "##uits": 7544,
      "##sb": 7545,
      "##over": 7546,
      "##ober": 7547,
      "##onds": 7548,
      "##oined": 7549,
      "##oying": 7550,
      "##writer": 7551,
      "##wberries": 7552,
      "##ki": 7553,
      "##kin": 7554,
      "##kind": 7555,
      "##do": 7556,
      "##dy": 7557,
      "##dra": 7558,
      "##dled": 7559,
      "##men": 7560,
      "##mor": 7561,
      "##mare": 7562,
      "##mark": 7563,
      "##mates": 7564,
      "##makers": 7565,
      "##bl": 7566,
      "##bor": 7567,
      "##born": 7568,
      "##bling": 7569,
      "##vi": 7570,
      "##vor": 7571,
      "##vis": 7572,
      "##hi": 7573,
      "##hill": 7574,
      "##hum": 7575,
      "##zi": 7576,
      "##za": 7577,
      "##xy": 7578,
      "##ja": 7579,
      "##jud": 7580,
      "##joined": 7581,
      "##50": 7582,
      "##23": 7583,
      "thor": 7584,
      "theater": 7585,
      "##erly": 7586,
      "##erving": 7587,
      "##inter": 7588,
      "##inite": 7589,
      "##inations": 7590,
      "##inks": 7591,
      "##ateri": 7592,
      "##nda": 7593,
      "##ndary": 7594,
      "##inging": 7595,
      "##ingly": 7596,
      "##onal": 7597,
      "##onents": 7598,
      "##esity": 7599,
      "##ani": 7600,
      "##ancing": 7601,
      "##orage": 7602,
      "offe": 7603,
      "##alu": 7604,
      "##aled": 7605,
      "inn": 7606,
      "inad": 7607,
      "inches": 7608,
      "##isure": 7609,
      "##isize": 7610,
      "##isper": 7611,
      "##itis": 7612,
      "##itative": 7613,
      "##itute": 7614,
      "##itivity": 7615,
      "##itudes": 7616,
      "##aru": 7617,
      "##arth": 7618,
      "##arter": 7619,
      "##arine": 7620,
      "##arize": 7621,
      "##arters": 7622,
      "##ask": 7623,
      "##ashing": 7624,
      "whisper": 7625,
      "iter": 7626,
      "##icing": 7627,
      "##icies": 7628,
      "##ician": 7629,
      "##icious": 7630,
      "##icrous": 7631,
      "beating": 7632,
      "beats": 7633,
      "##vember": 7634,
      "##uts": 7635,
      "rely": 7636,
      "rect": 7637,
      "reun": 7638,
      "reass": 7639,
      "recess": 7640,
      "rebe": 7641,
      "recept": 7642,
      "reven": 7643,
      "rehab": 7644,
      "##sel": 7645,
      "##secut": 7646,
      "##otrans": 7647,
      "isl": 7648,
      "isis": 7649,
      "island": 7650,
      "##sts": 7651,
      "##stal": 7652,
      "##stra": 7653,
      "##sters": 7654,
      "##stage": 7655,
      "##stairs": 7656,
      "##enty": 7657,
      "##entic": 7658,
      "##entless": 7659,
      "haz": 7660,
      "hacked": 7661,
      "##etch": 7662,
      "ons": 7663,
      "##ayer": 7664,
      "stack": 7665,
      "storm": 7666,
      "stock": 7667,
      "stored": 7668,
      "stability": 7669,
      "stakes": 7670,
      "stole": 7671,
      "stolen": 7672,
      "storage": 7673,
      "soap": 7674,
      "socks": 7675,
      "##uru": 7676,
      "##urday": 7677,
      "##urities": 7678,
      "##che": 7679,
      "##chest": 7680,
      "##chemy": 7681,
      "ford": 7682,
      "##amas": 7683,
      "##ament": 7684,
      "##keep": 7685,
      "##imination": 7686,
      "##iring": 7687,
      "##iration": 7688,
      "##irts": 7689,
      "doc": 7690,
      "dogs": 7691,
      "##opedic": 7692,
      "##oportion": 7693,
      "anec": 7694,
      "withdra": 7695,
      "##oli": 7696,
      "##olves": 7697,
      "myster": 7698,
      "hem": 7699,
      "abys": 7700,
      "asym": 7701,
      "meg": 7702,
      "meal": 7703,
      "meets": 7704,
      "mexic": 7705,
      "##adic": 7706,
      "##adays": 7707,
      "##thew": 7708,
      "shy": 7709,
      "shin": 7710,
      "shower": 7711,
      "shocking": 7712,
      "moist": 7713,
      "seash": 7714,
      "##rocess": 7715,
      "notes": 7716,
      "chart": 7717,
      "chap": 7718,
      "chairs": 7719,
      "chasing": 7720,
      "chalk": 7721,
      "chaos": 7722,
      "##raging": 7723,
      "atoms": 7724,
      "fried": 7725,
      "frames": 7726,
      "##gendary": 7727,
      "##illing": 7728,
      "##illiard": 7729,
      "confu": 7730,
      "conceived": 7731,
      "congoles": 7732,
      "conjoined": 7733,
      "##iles": 7734,
      "exit": 7735,
      "exhib": 7736,
      "##ulc": 7737,
      "##uls": 7738,
      "##ulin": 7739,
      "likeli": 7740,
      "likewise": 7741,
      "pel": 7742,
      "therefore": 7743,
      "delight": 7744,
      "##auded": 7745,
      "orth": 7746,
      "orange": 7747,
      "orchest": 7748,
      "##istas": 7749,
      "##istible": 7750,
      "alan": 7751,
      "alter": 7752,
      "alchemy": 7753,
      "proced": 7754,
      "procl": 7755,
      "prospect": 7756,
      "prosecut": 7757,
      "maine": 7758,
      "maps": 7759,
      "##ieval": 7760,
      "tries": 7761,
      "trunk": 7762,
      "trials": 7763,
      "##ifice": 7764,
      "##ifaru": 7765,
      "##uma": 7766,
      "##umped": 7767,
      "##umns": 7768,
      "knuck": 7769,
      "##osystem": 7770,
      "plot": 7771,
      "plum": 7772,
      "plag": 7773,
      "plaques": 7774,
      "plenty": 7775,
      "whoever": 7776,
      "##unition": 7777,
      "enl": 7778,
      "encom": 7779,
      "enemy": 7780,
      "enforce": 7781,
      "spur": 7782,
      "spill": 7783,
      "spitting": 7784,
      "sperm": 7785,
      "tender": 7786,
      "nowadays": 7787,
      "##cian": 7788,
      "justify": 7789,
      "##elve": 7790,
      "##elong": 7791,
      "upd": 7792,
      "upload": 7793,
      "upright": 7794,
      "sus": 7795,
      "suited": 7796,
      "sucks": 7797,
      "intent": 7798,
      "intol": 7799,
      "intense": 7800,
      "intensity": 7801,
      "##inea": 7802,
      "##ineering": 7803,
      "##ivated": 7804,
      "sab": 7805,
      "sail": 7806,
      "##ander": 7807,
      "##andan": 7808,
      "##apse": 7809,
      "##apagos": 7810,
      "actions": 7811,
      "##asts": 7812,
      "tables": 7813,
      "unre": 7814,
      "unity": 7815,
      "unhe": 7816,
      "unsu": 7817,
      "unknown": 7818,
      "feat": 7819,
      "feasting": 7820,
      "##agram": 7821,
      "compre": 7822,
      "compell": 7823,
      "composed": 7824,
      "sheep": 7825,
      "exposure": 7826,
      "manic": 7827,
      "managing": 7828,
      "manuru": 7829,
      "quo": 7830,
      "queasy": 7831,
      "amy": 7832,
      "ampl": 7833,
      "amnes": 7834,
      "nobel": 7835,
      "november": 7836,
      "agency": 7837,
      "##ourse": 7838,
      "leisure": 7839,
      "legendary": 7840,
      "clut": 7841,
      "clack": 7842,
      "clips": 7843,
      "twins": 7844,
      "twitch": 7845,
      "twelve": 7846,
      "##resistible": 7847,
      "whereas": 7848,
      "wherever": 7849,
      "##abilities": 7850,
      "newly": 7851,
      "locks": 7852,
      "lobby": 7853,
      "overnight": 7854,
      "dish": 7855,
      "disse": 7856,
      "dispr": 7857,
      "perceive": 7858,
      "prone": 7859,
      "firmly": 7860,
      "realities": 7861,
      "##bercul": 7862,
      "affl": 7863,
      "##achel": 7864,
      "idol": 7865,
      "ideal": 7866,
      "makeup": 7867,
      "coaster": 7868,
      "coca": 7869,
      "backpack": 7870,
      "talent": 7871,
      "talents": 7872,
      "talented": 7873,
      "aron": 7874,
      "bully": 7875,
      "buying": 7876,
      "bubble": 7877,
      "pole": 7878,
      "##pted": 7879,
      "##00s": 7880,
      "##quarters": 7881,
      "resh": 7882,
      "resil": 7883,
      "resem": 7884,
      "aden": 7885,
      "adds": 7886,
      "adverse": 7887,
      "##ologize": 7888,
      "interm": 7889,
      "intercept": 7890,
      "interven": 7891,
      "chances": 7892,
      "##assad": 7893,
      "##soft": 7894,
      "##riate": 7895,
      "##enses": 7896,
      "##ensus": 7897,
      "##ensitivity": 7898,
      "impro": 7899,
      "impressive": 7900,
      "impurities": 7901,
      "kindness": 7902,
      "underp": 7903,
      "undertook": 7904,
      "##ruption": 7905,
      "grip": 7906,
      "gramm": 7907,
      "letters": 7908,
      "scatter": 7909,
      "brush": 7910,
      "bliss": 7911,
      "root": 7912,
      "rolling": 7913,
      "emc": 7914,
      "emerge": 7915,
      "description": 7916,
      "precious": 7917,
      "preced": 7918,
      "remove": 7919,
      "remaining": 7920,
      "remained": 7921,
      "##igned": 7922,
      "##veling": 7923,
      "cola": 7924,
      "columns": 7925,
      "goods": 7926,
      "downhill": 7927,
      "##xtures": 7928,
      "thankfully": 7929,
      "boats": 7930,
      "boils": 7931,
      "maysoon": 7932,
      "insist": 7933,
      "insane": 7934,
      "insulin": 7935,
      "insensitivity": 7936,
      "##orship": 7937,
      "consensus": 7938,
      "helpless": 7939,
      "##nings": 7940,
      "quests": 7941,
      "persuade": 7942,
      "playground": 7943,
      "writes": 7944,
      "builds": 7945,
      "famines": 7946,
      "imagery": 7947,
      "imaginary": 7948,
      "aftermath": 7949,
      "technical": 7950,
      "##rence": 7951,
      "append": 7952,
      "approp": 7953,
      "trail": 7954,
      "trabe": 7955,
      "traps": 7956,
      "traits": 7957,
      "##tyards": 7958,
      "##phs": 7959,
      "creators": 7960,
      "drinking": 7961,
      "smiling": 7962,
      "smugg": 7963,
      "guide": 7964,
      "guides": 7965,
      "guards": 7966,
      "guinea": 7967,
      "greatly": 7968,
      "##aken": 7969,
      "##erton": 7970,
      "oprah": 7971,
      "factors": 7972,
      "sciences": 7973,
      "owners": 7974,
      "obtain": 7975,
      "obesity": 7976,
      "offices": 7977,
      "install": 7978,
      "instagram": 7979,
      "flor": 7980,
      "flour": 7981,
      "flavor": 7982,
      "flames": 7983,
      "flavors": 7984,
      "invasive": 7985,
      "involves": 7986,
      "counted": 7987,
      "countless": 7988,
      "matthew": 7989,
      "planes": 7990,
      "##plant": 7991,
      "2050": 7992,
      "gene": 7993,
      "generic": 7994,
      "holy": 7995,
      "kean": 7996,
      "##anging": 7997,
      "finds": 7998,
      "entry": 7999
    }
  }
}